#version: 0.2
t h
th e</w>
a n
i n
e r
t i
e d</w>
e n
a r
r e
o f</w>
o n
an d</w>
o r
i n</w>
o n</w>
s t
i t
a l
e r</w>
r o
e s</w>
a t
in g</w>
t o</w>
a s</w>
o u
a l</w>
i c
a n</w>
i s
i s</w>
a c
e l
e c
a ti
o r</w>
o m
s i
u r
o l
i l
e s
a s
a t</w>
a m
l y</w>
c h
u n
d i
e n</w>
e m
r i
w h
en t</w>
l i
c on
s u
en t
a d
p l
u s
d e
w as</w>
ati on</w>
v e</w>
o s
o w
b y</w>
p ro
a g
b e
v er
i r
f or</w>
c e</w>
u l
c om
a b
o p
e x
w it
th at</w>
a p
l e
wit h</w>
h a
s e
it y</w>
ti on</w>
th e
on s</w>
er e</w>
n e
' s</w>
t r
er s</w>
l e</w>
t h</w>
f or
s p
h i
t s</w>
m a
o c
ar e</w>
1 9
ou n
c l
a r</w>
i t</w>
c h</w>
f ro
v i
fro m</w>
g h
p ar
at e</w>
t er
n o
d u
p re
q u
b u
p er
t ed</w>
th er</w>
m an
2 0
c i
f f
r a
ic h</w>
d s</w>
at ed</w>
al ly</w>
i m
st r
wh ich</w>
w ere</w>
u d
e v
w or
m o
p e
s t</w>
m e
t er</w>
b e</w>
o o
s h
es t</w>
w e
u m
in g
p or
i c</w>
s o</w>
l d</w>
it s</w>
i r</w>
t a
i d
d er
on e</w>
al l</w>
c o
ar y</w>
l a
c ent
an g
th is</w>
t ur
ti c
p u
g h</w>
a f
on al</w>
m ent</w>
p h
e ar
ti m
h is</w>
d ed</w>
i es</w>
al l
os t</w>
b o
ro u
c or
a y</w>
g re
no t</w>
o g
om e</w>
o ther</w>
am e</w>
en ce</w>
h as</w>
ag e</w>
al so</w>
ent s</w>
com m
d ing</w>
du c
a u
ha ve</w>
i g
g i
ar g
ou r
the ir</w>
con t
ati ons</w>
e st
p o
s er
g o
t u
ou t</w>
d is
d er</w>
f e
at es</w>
ha d</w>
b er</w>
m ar
gh t</w>
f ir
m in
p r
f r
for m
ow n</w>
b l
v el
ic al</w>
a y
m or
es e</w>
cl ud
as s
c e
bu t</w>
v er</w>
f i
u s</w>
in e</w>
0 0</w>
pl e</w>
m il
g en
ou s</w>
h e</w>
un i
c oun
m ost</w>
as t</w>
p ol
k e</w>
s y
b ec
f l
in clud
c ol
c ity</w>
es s</w>
t y</w>
ti es</w>
su ch</w>
an t</w>
a v
t en
on g</w>
t w
an ce</w>
fir st</w>
d e</w>
e t</w>
ou ld</w>
h e
t ing</w>
ne w</w>
s ec
pre s
c re
in ter
ti ons</w>
t o
an s</w>
n or
i al</w>
b r
t e
the y</w>
i a</w>
ab le</w>
20 0
mor e</w>
1 8
man y</w>
i z
us e</w>
g r
v ed</w>
n ati
a d</w>
en g
s e</w>
k s</w>
be en</w>
us ed</w>
s ch
g n
it ed</w>
er n</w>
d ec
k ing</w>
is h</w>
en ti
20 1
d ur
s ome</w>
m u
or y</w>
l o
t ri
c ar
p op
is h
el l</w>
st e
t e</w>
l arg
i an</w>
be t
an d
af ter</w>
ar d</w>
a in
l and</w>
sp ec
si on</w>
ti c</w>
el y</w>
e l</w>
re s</w>
p os
e u
at er</w>
al s</w>
dur ing</w>
c an</w>
ac e</w>
s ou
m on
in to</w>
c es</w>
a st
wh o</w>
f in
k n
th an</w>
tim e</w>
tw o</w>
p ri
i st
s ti
b er
m an</w>
es s
th ou
ic e</w>
ur e</w>
el ec
pop ul
ad e</w>
oun d</w>
at t
c ri
o f
or s</w>
o ff
il e</w>
ver n
on ly</w>
cent ur
st ate</w>
d o
w i
go vern
th ese</w>
g e</w>
j o
o ver</w>
wor ld</w>
l ed</w>
p en
wh en</w>
ol og
is m</w>
am er
st ates</w>
as ed</w>
u e</w>
th ere</w>
we en</w>
bet ween</w>
p an
is t</w>
s hi
si gn
ma y</w>
ti ve</w>
i d</w>
nati onal</w>
ver s
u c
it e</w>
c u
re c
ar m
tur e</w>
ic an</w>
p s</w>
s ol
de vel
c a
su b
as e</w>
re e</w>
t en</w>
ar e
u m</w>
l ow
b ri
n um
gen er
centur y</w>
ar i
em ent</w>
c ap
os e</w>
t ro
ac k</w>
v es</w>
tr an
ing s</w>
a in</w>
ou r</w>
w ar</w>
an n
in di
, 0
devel op
g er
t ec
un ited</w>
wh ile</w>
ev er</w>
r it
pro duc
c ul
f ac
l oc
per i
w ould</w>
th rou
ch ar
s el
in v
em p
st or
t t
in ce</w>
di ff
w il
y e
eu ro
e w
ac h
su p
at ing</w>
f ic
a m</w>
re l
is i
em ber</w>
c ur
p ow
pe o
wi th
ser v
tic al</w>
s a
g u
d ay</w>
thou gh</w>
ti s
e d
kn own</w>
f u
an t
f ol
e g
el l
g rou
su l
,0 00</w>
si d
e t
m us
li on</w>
ma in
f er
b li
w ar
h ow
d es
si c</w>
m s</w>
ear s</w>
ma j
h o
y p
peo ple</w>
ac h</w>
includ ing</w>
ec t</w>
s m
oo d</w>
b le</w>
l es</w>
g ro
tr a
r u
govern ment</w>
y ears</w>
un der</w>
c all
uni vers
ish ed</w>
oc i
en c
ab out</w>
v ing</w>
how ever</w>
ta in
bu il
h ou
be g
bo th</w>
w ell</w>
con si
re gi
t re
ce p
str uc
sti tu
k ed</w>
b i
s o
ste m</w>
il y</w>
por t</w>
k e
on d</w>
b el
pu bli
cont in
v ari
ch in
0 s</w>
19 9
publi c</w>
h el
f il
n o</w>
ver y</w>
s ur
ear ly</w>
a ir
m at
bec ame</w>
w est</w>
sy stem</w>
on g
l in
cent r
r ic
f t</w>
ati ve</w>
s on</w>
l ang
p er</w>
b ro
ye ar</w>
for m</w>
an ts</w>
pl ay
p i
r is
b il
ir e</w>
wh ere</w>
r ed</w>
s s</w>
re g
or g
re cor
s ince</w>
call ed</w>
lang u
diff er
c an
u p</w>
hi gh
ag es</w>
on om
ar ch
th er
l ater</w>
nor th</w>
o re
o b
r y</w>
op er
num ber</w>
re qu
par t</w>
throu gh</w>
w ay</w>
an ds</w>
h er</w>
se ver
h n
st s</w>
ac t</w>
c er
v al
n ing</w>
m ade</w>
st ri
ch ang
wor k</w>
por t
d ic
m e</w>
o d</w>
en d</w>
tr y</w>
th ree</w>
s ci
fol low
ol d</w>
of ten</w>
be ing</w>
tis h</w>
d em
m i
as s</w>
f a
hi gh</w>
1 7
er g
cont ro
popul ation</w>
19 8
oo l</w>
or ig
s om
org an
in cre
w id
g e
f am
c our
com pan
ex am
h y
pow er</w>
amer ican</w>
off ic
ay s</w>
univers ity</w>
v ol
com pl
b or
d om
m em
us si
shi p</w>
oo k</w>
mu sic</w>
bri tish</w>
e ff
ti onal</w>
d re
al e</w>
s c
we st
ab l
st ud
a k
for e</w>
b ur
le g
pol i
sou th</w>
h ar
de pen
the m</w>
li ke</w>
mil lion</w>
tec hn
i l</w>
t ers</w>
sever al</w>
p t
maj or</w>
mo der
t or
tim es</w>
a use</w>
al though</w>
n ed</w>
an y</w>
n a</w>
di rec
are a</w>
t or</w>
re sul
si de</w>
iz ed</w>
est abl
po in
h u
fr en
v en</w>
si ve</w>
at ure</w>
larg e</w>
ch ur
olog y</w>
sel f</w>
ph il
fren ch</w>
w in
d o</w>
t yp
fl u
ta in</w>
r ul
c ess</w>
an c
er ed</w>
bec ause</w>
w rit
sec ond</w>
il l
h n</w>
on d
m is
ti on
r ap
r e</w>
ic s</w>
su c
s en
isi on</w>
me di
em s</w>
st re
pu bl
u al</w>
ar ly</w>
19 7
o w</w>
us t</w>
th ern</w>
u p
th en</w>
n i
m id
h er
v o
ti l</w>
b ased</w>
peri od</w>
ec ts</w>
su m
un til</w>
ec onom
b ar
no w</w>
a si
jo hn</w>
c ro
e ast</w>
y ing</w>
sp e
re li
al i
orig in
li m
f un
larg est</w>
it al</w>
e ach</w>
sch ool</w>
b ers</w>
l it
b re
pro vi
c ould</w>
st ar
wil l</w>
po si
char ac
th ose</w>
ent ly</w>
v en
19 6
d el
includ e</w>
l ine</w>
t el
s ame</w>
comm un
i f</w>
e k</w>
ch il
ain st</w>
ag ainst</w>
f e</w>
ou t
j u
la w</w>
vel y</w>
un der
p at
v ic
le ad
h ol
fe der
der ed</w>
b s</w>
west ern</w>
moder n</w>
ce i
ar ound</w>
ac cor
e ded</w>
is l
contin u
beg an</w>
at ur
a ff
with in</w>
ad v
p e</w>
n am
ul ar</w>
in flu
ap pro
t on</w>
h um
f ound</w>
re sp
e i
a z
ev en</w>
pre sid
s es</w>
fi ed</w>
am ong</w>
i i</w>
euro pe
tra di
f oun
al ity</w>
mu ch</w>
u tion</w>
be fore</w>
gener al</w>
cl u
s k
j ew
i fic
s ing
coun try</w>
d r
c ess
1 0
emp ire</w>
depen d
com p
fu l</w>
hi stor
pl o
g l
l l</w>
ic ally</w>
1 6
grou p</w>
langu age</w>
ec ted</w>
poli tical</w>
im port
lo w</w>
e f
or ity</w>
y s
li ght</w>
em per
cur r
v ir
differ ent</w>
ti v
it ary</w>
19 4
accor ding</w>
it ation</w>
e qu
u .
re le
ap pe
a ir</w>
develop ment</w>
l ess</w>
ent ed</w>
in c
em ents</w>
t es</w>
exam ple</w>
1 5
is e</w>
inter national</w>
di d</w>
pl ac
in du
o ver
19 5
u ary</w>
st ory</w>
en ces</w>
ger man</w>
in i
e duc
europe an</w>
s ed</w>
en d
ent al</w>
d en
y m
u. s</w>
ow n
ne w
eng l
amer ic
e ty</w>
u res</w>
se t</w>
pr in
r ang
i ally</w>
c am
as on</w>
tic s</w>
m ents</w>
s oci
par tic
erg y</w>
ig n</w>
engl ish</w>
chur ch</w>
v e
f our</w>
tran s
l ab
du e</w>
an other</w>
as h
us ing</w>
st and
str ic
gh ts</w>
d y</w>
t al</w>
ou s
c ed</w>
ne eded</w>
comm on</w>
f ur
mil itary</w>
di st
n on</w>
e p
c ent</w>
arm y</w>
tri es</w>
l ong</w>
li fe</w>
som e
re main
euro pe</w>
ist s</w>
is ed</w>
follow ing</w>
p ur
f ic</w>
h ome</w>
sti ll</w>
de f
resp on
in depend
ol s</w>
o th
gre at</w>
k ing
re cei
d at
coun tries</w>
as es</w>
tr ac
en ergy</w>
ad di
t ly</w>
l ate</w>
ro y
centr al</w>
h om
wh at</w>
reli gi
pl ace</w>
f re
ti t
hou se</w>
at h</w>
ic i
fi el
compan y</w>
ar ch</w>
s our
p a
au th
m ul
chin ese</w>
ab il
at ely</w>
w ater</w>
cl a
di o</w>
g ra
no v
n ame</w>
do m</w>
am es</w>
c op
in stitu
hi m</w>
form ed</w>
s oc
re pres
1 2
an ci
. [
contro l</w>
o k
th ir
ma in</w>
y n
r ussi
are as</w>
th em
1 0</w>
r en
pos ed</w>
p al
n ec
compl e
o s</w>
fr ance</w>
ass oci
regi on</w>
or der</w>
ar ed</w>
un e</w>
si mil
establ ished</w>
19 3
r ac
tur al</w>
loc al</w>
b an
hum an</w>
l ond
e ast
import ant</w>
i de
pro v
h an
am s</w>
al ong</w>
st u
uni on</w>
st at
r an
presid ent</w>
si st
b ack</w>
st on</w>
iz ation</w>
b us
si ons</w>
lond on</w>
f ul
d ro
con stitu
se qu
d in
b y
all ow
str y</w>
par ty</w>
grou ps</w>
ter m</w>
sign ific
p ass
b c</w>
u su
ati c</w>
y or
hi story</w>
ar s</w>
si ble</w>
f ore
develop ed</w>
sp or
consi dered</w>
sm all</w>
or i
h al
rel ati
p ed</w>
col l
soc ial</w>
l ing</w>
spec ies</w>
re se
chin a</w>
g a
gro w
t est
sh e</w>
d ge</w>
cour t</w>
ar t</w>
for ces</w>
st an
m ag
a il
b ra
sign ed</w>
gre ek</w>
s la
ag ue</w>
op h
ir ed</w>
pro f
co ver
ig r
ar ti
z e</w>
ex t</w>
c at
enc y</w>
att le</w>
sh or
ro c
so vi
vari ous</w>
re fer
d le</w>
olog ical</w>
form s</w>
ti ci
t ors</w>
pr ac
m oun
h un
dom in
in s</w>
d es</w>
u ally</w>
indi a</w>
sy st
p ec
bec ome</w>
des cri
v is
s al
de fin
ar ds</w>
2 0</w>
d oc
col le
bel i
b ir
fil m</w>
j ect</w>
yor k</w>
m er
educ ation</w>
di v
d a
le v
e ther</w>
g g
sch o
cent er</w>
c y
b ed</w>
t own</w>
d h
feder al</w>
bu d
a th
0 ,000</w>
c el
posi tion</w>
par t
id enti
un d</w>
se ason</w>
pl ic
m ic
is ra
col on
re ad
mem bers</w>
in tro
min i
o t
hel d</w>
east ern</w>
si m
it al
ch es</w>
og rap
mid dle</w>
al th</w>
form ation</w>
duc ed</w>
1 3
st ed</w>
il i
a k</w>
sup port</w>
per s
fi ve</w>
de ath</w>
ous ly</w>
elec tr
e th
usu ally</w>
re vol
por ted</w>
br it
k et</w>
j ap
qu e</w>
with out</w>
c itation</w>
se e</w>
b as
n atur
en s</w>
ap ol
sovi et</w>
in ten
ris ti
pl es</w>
n e</w>
m igr
com pu
o m</w>
con struc
ch risti
serv ice</w>
k il
abil ity</w>
is su
ter rit
lit er
w om
t ow
ro man</w>
b al
loc ated</w>
is land</w>
spec i
ic es</w>
qu e
popul ar</w>
n er</w>
ex ten
thir d</w>
m en</w>
b ac
1 4
ch i
m ad
m al
l u
b all</w>
er ing</w>
vi de
se pt
le ague</w>
buil t</w>
le y</w>
ini ti
chil dre
scho ols</w>
pri v
di g
childre n</w>
j an
d ra
fiel d</w>
d ings</w>
st y
suc cess
p li
m ary</w>
in es</w>
v al</w>
in e
mat er
vi du
indi vidu
j ud
e w</w>
c ir
se tt
o p</w>
ter min
oth ers</w>
w ard</w>
d ers</w>
sept ember</w>
poin t</w>
gr ad
colle ge</w>
co gn
w a
rese arch</w>
re tur
ne ar</w>
includ ed</w>
m ac
c o</w>
th o
econom ic</w>
at or</w>
t ook</w>
stand ard</w>
sing le</w>
s am
me d
enti al</w>
19 1
fam ily</w>
syst ems</w>
g ar
f oo
a di
ul arly</w>
roy al</w>
min ist
cep t</w>
ph ys
op s</w>
bl ack</w>
arch it
nor thern</w>
for ce</w>
chang e</w>
li gh
l ast</w>
in ed</w>
ri ver</w>
ne t
or ies</w>
c al
tu res</w>
sci enti
a ver
throu gh
di es</w>
continu ed</w>
cl ass
form er</w>
5 0</w>
to p</w>
se par
w ays</w>
d own</w>
com pe
ag re
au g
2 5</w>
wh ite</w>
king dom</w>
ger many</w>
par ts</w>
buil ding</w>
brit ain</w>
through out</w>
b ook</w>
wor ks</w>
sa id</w>
eng land</w>
ac tion</w>
fe w</w>
c r
sou thern</w>
f ree</w>
e f</w>
de si
cul ture</w>
c ame</w>
d ar
201 0</w>
inv ol
fur ther</w>
b our
pec ially</w>
es pecially</w>
tain s</w>
phil os
gener ally</w>
ci ties</w>
tre at
au str
mo v
high er</w>
cla im
af r
ear li
cl os
k en</w>
c le
us es</w>
produc ed</w>
n s</w>
l an
al ism</w>
stud y</w>
simil ar</w>
in a</w>
ser ies</w>
b a
ag ed</w>
x im
pro cess</w>
s of
la w
re f
oc cu
f requ
produc tion</w>
ju ly</w>
com b
cap ital</w>
th s</w>
r ing</w>
par is</w>
em plo
ab ly</w>
vi ew</w>
resul t</w>
de l</w>
y s</w>
op en
mar ch</w>
at s</w>
lev el</w>
di stric
s w
3 0</w>
bo dy</w>
1 5</w>
e ts</w>
jan uary</w>
rul e</w>
me t
signific ant</w>
ri ght</w>
b en
al bu
p ap
of f</w>
pro tec
pol ic
it es</w>
u es</w>
some times</w>
p tion</w>
p ic
en ded</w>
oc to
b est</w>
at ures</w>
att emp
americ a</w>
wid e</w>
t emper
rele ased</w>
on y</w>
natur al</w>
mini str
l ong
octo ber</w>
j une</w>
am m
ad ministr
ma ke</w>
pl ay</w>
religi ous</w>
origin al</w>
langu ages</w>
l at
h en
d ays</w>
c ase</w>
th us</w>
he ad
cor por
ad a</w>
s ing</w>
pre vi
n al</w>
hal f</w>
ex ec
ci l</w>
bus in
bro ad
play ed</w>
ex peri
du ce</w>
to tal</w>
p ly</w>
m el
is tic</w>
ch am
an im
al li
afr ican</w>
1 .
au t
recor d</w>
o tt
i p
c ra
av ail
par k</w>
m ex
ser ved</w>
s em
ex ist
d en</w>
coun cil</w>
ul t</w>
st ation</w>
s or
oun ced</w>
el s</w>
ac i
st er</w>
sci ence</w>
on ic</w>
tain ed</w>
b an</w>
vi l</w>
s qu
ra ther</w>
.[ citation</w>
vi ew
t an
plac ed</w>
g n</w>
austr al
t able</w>
offic ial</w>
g er</w>
e very</w>
dat a</w>
comm er
wom en</w>
re public</w>
curr ent</w>
cre ated</w>
ati onal</w>
gi ven</w>
ri ghts</w>
b attle</w>
com par
an ish</w>
ac hi
ta ke</w>
h or
f ri
sy m
partic ularly</w>
li ber
ex ual</w>
d ri
d ol
con cer
te am</w>
ev ol
19 th</w>
1 ,
vide o</w>
dec ember</w>
com e</w>
201 1</w>
tu al</w>
stud ents</w>
an al
1 2</w>
w al
i gh
d ate</w>
ch ed</w>
t ation</w>
re sid
k es</w>
rang e</w>
pro gr
ott om
go d</w>
200 8</w>
e an</w>
addi tion</w>
stre et</w>
le ft</w>
l os
ti vely</w>
sh ould</w>
i b
ha ving</w>
techn ology</w>
sch ol
ro ss</w>
bud dh
l a</w>
enc ed</w>
ach ed</w>
201 3</w>
to day</w>
on es</w>
ex pan
ro le</w>
con tr
ain ed</w>
fun c
aver age</w>
re cogn
per cent</w>
nov ember</w>
jew ish</w>
j ust</w>
in f
i m</w>
de part
ma king</w>
do es</w>
ti ce</w>
ri l</w>
qu ar
l or
es tim
an ti
shi ps</w>
se a</w>
at ors</w>
in st
the ory</w>
fr on
ex p
d am
ber t</w>
ap ril</w>
p t</w>
la un
jew s</w>
ent ation</w>
ei ther</w>
sp anish</w>
sh ow</w>
roc k</w>
ol ic</w>
g ames</w>
tri c</w>
ne u
ge or
que en</w>
ex pl
cul tural</w>
man u
low er</w>
influ ence</w>
me an
he ad</w>
p ing</w>
b om
an a</w>
200 9</w>
writ ten</w>
pos sible</w>
h ard</w>
201 2</w>
ad op
sh ow
pres ent</w>
nam ed</w>
clu b</w>
ar ies</w>
ter ms</w>
pu t</w>
philos oph
g ame</w>
en ci
ac ross</w>
elec tion</w>
aug ust</w>
recei ved</w>
con nec
ci al</w>
avail able</w>
on ed</w>
isra el</w>
ev ed</w>
em por
archit ec
af ric
it self</w>
t ex
r un
pr ussi
h in
fr an
dec l
de st
ca th
w e</w>
s cri
ver si
ther e
recor ds</w>
mo ved</w>
in ste
in ning</w>
car ri
v il
o t</w>
me as
indu stri
high est</w>
commun ity</w>
ag o</w>
tradi tional</w>
su ff
nati ve</w>
kn ow
av y</w>
200 7</w>
incre ased</w>
sa w</w>
prin ci
l s</w>
in ation</w>
at ten
20 th</w>
201 4</w>
tr ade</w>
gro und</w>
al ist</w>
ad em
n ess</w>
man s</w>
di al
soci ety</w>
publ ished</w>
ec tive</w>
am ent</w>
pr is
n ic
maj ority</w>
m ec
in formation</w>
b oo
oc k</w>
he alth</w>
h ab
con gre
bil ity</w>
l ati
z ed</w>
ci vil</w>
4 0</w>
vi a</w>
ch em
nati on
mus t</w>
cl as
exec u
re spec
o x
foun ded</w>
dist inc
su gg
serv ices</w>
l am
eg yp
al most</w>
ti al</w>
pro b
mar ket</w>
ke y</w>
incre as
dem oc
be y
1 00</w>
w on</w>
re st
in t
comm it
cl ass</w>
cer tain</w>
leg al</w>
k ore
g o</w>
f ar</w>
f ace</w>
19 0
1 1</w>
sum m
g en</w>
tel ev
off ice</w>
up on</w>
sp ace</w>
ottom an</w>
h am
d own
6 0</w>
re ad</w>
k a</w>
fic ation</w>
tran sm
n ations</w>
li ve</w>
il ed</w>
distric t</w>
an ted</w>
200 6</w>
sour ces</w>
independ ent</w>
foo t
russi an</w>
lin es</w>
ho w</w>
ab o
medi a</w>
d yn
c en
intro duced</w>
l ands</w>
k en
ann ounced</w>
wor d</w>
w ood</w>
ex pres
e p</w>
priv ate</w>
m en
indi an</w>
i als</w>
de fe
t a</w>
si x</w>
m os
depart ment</w>
an g</w>
w n</w>
rou ght</w>
ograp h
en vir
a i</w>
vi d
sec re
r ate</w>
inste ad</w>
bil lion</w>
ver se</w>
manu fac
j ects</w>
er a</w>
sel ves</w>
m un
er y</w>
ac coun
e y</w>
s co
pro per
envir on
2 .
um ents</w>
sty le</w>
id e</w>
c ast
anci ent</w>
albu m</w>
w at
h ear
follow ed</w>
f ood</w>
t le</w>
por ts</w>
indu stry</w>
el ev
chang es</w>
c as
wil li
pl ants</w>
ing u
g al
dis c
18 7
y o
th ing</w>
ch o
b ul
1 8</w>
fore ign</w>
bo ard</w>
them selves</w>
sy n
relati on
ic o</w>
i tion</w>
afric a</w>
y oun
l og
se en</w>
par li
ne t</w>
ne igh
mus li
m y
charac ter
mul ti
am oun
ac y</w>
telev ision</w>
pro mo
mec han
ev ents</w>
emper or</w>
des p
a vi
treat y</w>
rel ated</w>
i ght</w>
f oc
c ast</w>
busin ess</w>
typ e</w>
mov ement</w>
grow th</w>
est ed</w>
elec tric</w>
beg inning</w>
war ds</w>
ra dio</w>
on ce</w>
1 6</w>
m as
le ast</w>
ec e</w>
cover ed</w>
construc tion</w>
an i
struc ture</w>
gre ater</w>
desp ite</w>
fe br
febr uary</w>
ec tion</w>
c ases</w>
att ac
vi ol
j ur
gre en</w>
minist er</w>
l o</w>
est on
di ed</w>
con ver
l er</w>
wor king</w>
u k</w>
t og
remain ed</w>
our s</w>
know le
ful l</w>
eu m</w>
eng th</w>
asi a</w>
ac adem
1 4</w>
0 .
pri mary</w>
ou th</w>
lead ing</w>
in dic
h os
cra ft</w>
19 2
n ass
n apol
cont ri
ap plic
k in
ing ton</w>
de signed</w>
an ese</w>
m ach
lati n</w>
si on
net work</w>
m ember</w>
ev ent
desi gn</w>
a h</w>
ser ve</w>
ic k</w>
gra m</w>
fin al</w>
e vid
contri bu
b es</w>
de v
ch e
ch arg
sou th
ro ad</w>
provi de</w>
c ell
ati c
t ch</w>
st ly</w>
scienti fic</w>
s un
re st</w>
commun ic
w in</w>
r ace</w>
de gre
compu ter</w>
associ ated</w>
3 .
tiv ity</w>
sour ce</w>
shor t</w>
o l</w>
napol e
n ext</w>
f av
er ous</w>
coun ty</w>
squ are</w>
p hi
oc cur
in str
f es
ac c
thou ght</w>
reg ul
i ans</w>
centr e</w>
ur ban</w>
r on
h i</w>
elec ted</w>
a b</w>
u t
stu dies</w>
nass er</w>
geor ge</w>
can ada</w>
typ ically</w>
la hom
b rought</w>
partic ular</w>
ok lahom
s ent</w>
polic y</w>
s ite</w>
pro gram</w>
g lo
em o
200 5</w>
tog ether</w>
regi ons</w>
ex per
est s</w>
d ou
wor ds</w>
k ers</w>
di vi
con duc
ast y</w>
pro test
l y
includ es</w>
id ed</w>
descri bed</w>
201 5</w>
. .
revol ution</w>
op en</w>
lim ited</w>
f y</w>
e .
charac ters</w>
al ter
mo del</w>
isl ands</w>
ef for
d ance</w>
ag ain</w>
rec ent</w>
out side</w>
foot ball</w>
centur ies</w>
x ed</w>
reg ar
oklahom a</w>
incre ase</w>
fl ic
dyn asty</w>
div ision</w>
allow ed</w>
sec ur
per for
tion ally</w>
r a</w>
nor th
h an</w>
f em
con di
ac qu
su s</w>
star ted</w>
s ound</w>
m ol
g .</w>
b al</w>
independ ence</w>
eff ect</w>
constitu tion</w>
cap ac
a u</w>
s exual</w>
de termin
ac cep
y ed</w>
requ ired</w>
per son</w>
mex ico</w>
in te
gre at
class ical</w>
charac ter</w>
buil dings</w>
str ong</w>
s ure</w>
ru n</w>
ra il
perfor man
l ic
hy dro
e ds</w>
bec om
si onal</w>
man ag
ma y
lit tle</w>
im per
be t</w>
b ly</w>
an ten
territ ory</w>
s wit
pre v
leg isl
l and
ain ing</w>
abo ve</w>
n ation</w>
compe ti
m a</w>
k er
th re
sett l
p it
m ing</w>
le ar
law s</w>
g es</w>
ex t
event ually</w>
e m</w>
cath olic</w>
stat us</w>
refer red</w>
m ental</w>
du tch</w>
bo ston</w>
as p
stan ding</w>
commer cial</w>
wid ely</w>
ta ken</w>
mus eum</w>
me ans</w>
ec h</w>
w ro
vel s</w>
ud e</w>
fin anci
en a</w>
b ell</w>
foun d
d on
ad es</w>
individu al</w>
ac tive</w>
vic tor
str at
s it
l ou
eth n
b it</w>
appro xim
wro te</w>
spec ial</w>
sm all
p un
iz e</w>
car ol
c lim
wh ose</w>
prof es
ha m</w>
b and</w>
willi am</w>
qu es
is sion</w>
success ful</w>
p ost</w>
m i</w>
as ons</w>
y u
we e
uni ties</w>
sub sequ
p on
it h</w>
il l</w>
ic k
christi an</w>
br an
tran si
publ ic
ish ing</w>
diff ic
claim ed</w>
ca used</w>
re fl
provi ded</w>
mo stly</w>
austral ia</w>
ar ab
ac k
2 4</w>
w ent</w>
pu s</w>
l ost</w>
jap anese</w>
e ver
compan ies</w>
au stri
air craft</w>
for ced</w>
de b
b ase</w>
ap poin
tran spor
organ is
h ap
f ig
con st
bor n</w>
ad ol
te ach
o ts</w>
con flic
at ory</w>
8 0</w>
1 7</w>
z en
t ory</w>
pl ant</w>
li k
e tic</w>
con serv
ne l</w>
earli er</w>
cam pa
tic ally</w>
larg ely</w>
jap an</w>
ing ly</w>
fa ther</w>
chil d</w>
cham pi
18 5
univers al</w>
som al
s ain
ric ul
li ving</w>
i re
dem on
cep tion</w>
sol ar</w>
evid ence</w>
d a</w>
contro l
a c</w>
summ er</w>
napole on</w>
f all</w>
con sum
5 00</w>
thou s
t v</w>
sof tw
re ached</w>
demon str
co de</w>
ant ly</w>
a king</w>
open ed</w>
ne ver</w>
.. .</w>
om s</w>
m it
empor ary</w>
dom es
al ized</w>
pass ed</w>
mean ing</w>
larg er</w>
it ing</w>
dig ital</w>
18 9
1 3</w>
spe ed</w>
e ve</w>
architec ture</w>
vari ety</w>
si ze</w>
ne arly</w>
el ements</w>
e br
ou gh</w>
knowle dge</w>
econom y</w>
dis c</w>
p ra
cl ose</w>
be ha
ann ual</w>
uni versi
pur pos
o il</w>
eng ine
b a</w>
wh ether</w>
universi ties</w>
k m</w>
h on
cu st
z er
regi onal</w>
pli ed</w>
strat eg
softw are</w>
organ ization</w>
de sign
au l</w>
pro cess
nec ess
isi ons</w>
approxim ately</w>
ro man
pro duce</w>
in sec
associ ation</w>
ar ab</w>
americ ans</w>
0 0
x i
v on</w>
su pre
s an
ris e</w>
m ass</w>
financi al</w>
ar c
tit le</w>
pro bl
or tho
mar ri
histor ical</w>
der i
ad d
tur ed</w>
the at
speci fic</w>
oo ds</w>
h old</w>
estim ated</w>
e. g.</w>
comple x</w>
bra in</w>
tro ops</w>
po ten
mic ro
lab our</w>
g ood</w>
con n
ortho do
mater ial</w>
gre ece</w>
2 1</w>
18 6
small er</w>
retur n</w>
pl at
or din
im pro
adol es
separ ate</w>
n u
for d</w>
clas si
ro un
re ported</w>
govern or</w>
ga ve</w>
fu ture</w>
er ship</w>
er e
democ r
auth ority</w>
200 4</w>
v ill
tt on</w>
phys ical</w>
par tici
on na</w>
mad onna</w>
li br
j ing</w>
fi f
di stri
beha vi
av en
t arg
su per
pri mar
ar ri
ant i</w>
ni ght</w>
n ature</w>
inte gr
imper ial</w>
distri bu
be l</w>
administr ation</w>
ad s</w>
repres ent
pl an
num erous</w>
comm only</w>
can adi
si l
se ven</w>
re placed</w>
j our
g ation</w>
sit u
ol d
ital ian</w>
il s</w>
ful ly</w>
fron t</w>
w ash
the ast</w>
schol ars</w>
pol y
pap er</w>
exper im
adop ted</w>
read y</w>
oper ations</w>
youn g</w>
ti vi
t un
st one</w>
philosoph y</w>
med ical</w>
in c</w>
fl or
ati s
al ex
mon ths</w>
isl am
ent er
ci ti
ap ple</w>
a w
so on</w>
respon se</w>
parli ament</w>
or e</w>
long er</w>
g et</w>
duc tion</w>
t al
primar ily</w>
pri me</w>
con qu
con cept</w>
ti bet</w>
there fore</w>
sur vi
qu ality</w>
ne y</w>
mo ther</w>
le vels</w>
g s</w>
ethn ic</w>
direc t</w>
ber g</w>
p sy
it an</w>
f el
direc tly</w>
u ed</w>
pow ers</w>
pl ann
man n</w>
invol ved</w>
h all</w>
fes tiv
cel ebr
ar ts</w>
a way</w>
m ed</w>
institu te</w>
gr and</w>
fr anc
divi ded</w>
congre ss</w>
con ven
ain s</w>
t est</w>
pers onal</w>
le t
ear th</w>
col or</w>
th u
temper ature</w>
suc cess</w>
s ong
pri or</w>
es sion</w>
1 9</w>
tu ally</w>
sp i
sco t
prac tice</w>
me tro
char les</w>
beli eved</w>
u te</w>
typ es</w>
te e</w>
sup ported</w>
secur ity</w>
j i
fam ous</w>
es ti
cu p</w>
chang ed</w>
carol ina</w>
bo x</w>
amoun t</w>
all s</w>
yo u</w>
sub ject</w>
stor e</w>
ol e</w>
mo ve</w>
industri al</w>
i ties</w>
canadi an</w>
arti sts</w>
sol d</w>
russi a</w>
pop e</w>
p aul</w>
p ast</w>
ow ned</w>
me tho
hi m
h and
consi der
comp on
an ces</w>
to o</w>
tion ary</w>
st o
s ong</w>
rele ase</w>
origin ally</w>
gr ap
fac t</w>
com man
air port</w>
ym p
wor l
sp ain</w>
r ad
probl ems</w>
em erg
b it
at trac
ac tions</w>
s ha
main ly</w>
im migr
i ed</w>
decl ared</w>
am a</w>
car din
anc ed</w>
2 ,
te ams</w>
supre me</w>
su n</w>
performan ce</w>
par ties</w>
p act</w>
identi ty</w>
h and</w>
ev ent</w>
b ish
pres sion</w>
me th
k er</w>
ital y</w>
au dio</w>
at lan
18 8
sist ance</w>
on a</w>
fe atures</w>
att ack</w>
atlan tic</w>
ass em
tow ards</w>
st ated</w>
a ke</w>
20 0</w>
st ations</w>
high ly</w>
cat al
c ali
si a</w>
sh ar
s af
pro min
institu tions</w>
i ds</w>
hel p</w>
grad u
defin ed</w>
def en
ca use</w>
al ways</w>
agre ement</w>
u n</w>
tur n</w>
t our
oun ds</w>
n ar
gl ass</w>
ac tivi
18 3
writ ing</w>
wash ington</w>
tri bu
th ro
sain t</w>
remain s</w>
num bers</w>
m al</w>
him self</w>
form ing</w>
fi gh
experi ence</w>
def ence</w>
4 .
ex tre
anten na</w>
w rest
ti bet
st ing</w>
oper ation</w>
in sul
hou ses</w>
f our
curr ently</w>
anim als</w>
tro it</w>
sc ale</w>
relation ship</w>
lat ter</w>
comm unities</w>
c le</w>
20 00</w>
previ ous</w>
pl an</w>
ow s</w>
metro pol
i or</w>
de troit</w>
re port</w>
re ly</w>
prov ince</w>
musli m</w>
l en
2 3</w>
ra di
previ ously</w>
n ig
le ad</w>
kil led</w>
ent h</w>
eff ici
c ou
tradi tion</w>
s on
por tion</w>
orthodo x</w>
ch ic
y a</w>
recor ded</w>
ol ymp
n on
n om
mis sion</w>
le m</w>
in tel
fer ence</w>
li g
j ames</w>
he avy</w>
fe atur
f le
cor e</w>
clim ate</w>
air s</w>
t ary</w>
sec tion</w>
influ enced</w>
h ours</w>
d og
c ru
bour ne</w>
sp read</w>
sp ok
p ain
n an
moun tains</w>
k ar
egyp t</w>
ag ricul
ver sion</w>
rac ial</w>
pro ject</w>
liter ature</w>
in corpor
fam il
ci d
ati ves</w>
ad ded</w>
th ic</w>
pol ice</w>
lik ely</w>
id a</w>
e .</w>
ac cess</w>
worl d
v oc
th om
relati vely</w>
offic ially</w>
me dic
inter est</w>
ent ary</w>
co ast</w>
spor ts</w>
sol ution</w>
s at
re al</w>
islam ic</w>
g os
ex hi
down town</w>
c ost</w>
au di
arm ed</w>
2 2</w>
ver s</w>
ur al</w>
t s
star t</w>
p al</w>
lab or
ker ry</w>
ex pen
e di
d ates</w>
con centr
appe ar
y ale</w>
um ent</w>
tain ing</w>
t ext</w>
oc ca
mem ory</w>
inter pre
inter net</w>
initi ally</w>
im pl
gre s
execu tive</w>
en ds</w>
con sol
chi ef</w>
ch an
produc ts</w>
mar k</w>
jo in
g add
enti re</w>
chur ches</w>
all ow</w>
ad el
w ing</w>
tr aining</w>
or ial</w>
mid -
mel bourne</w>
m c
j us
glo bal</w>
cri min
conflic t</w>
cl es</w>
200 3</w>
re pe
profes sional</w>
new s</w>
cont emporary</w>
ac ts</w>
z e
st age</w>
resul ting</w>
hen ry</w>
gadd af
da ily</w>
chem ical</w>
5 .
ri t</w>
resul ted</w>
prac tic
man dol
ha ven</w>
fir e</w>
d ru
ac u
ac tivity</w>
uc le
sol di
ran ked</w>
ma r</w>
l l
g ed</w>
cre ate</w>
al ists</w>
organ iz
g am
earli est</w>
condi tions</w>
ch ing</w>
appe ared</w>
am i</w>
ad ing</w>
18 th</w>
y et</w>
new sp
n '
mar ked</w>
laun ched</w>
hydro gen</w>
g or
fil ms</w>
famil ies</w>
enci es</w>
di c</w>
bet ter</w>
ar ity</w>
6 .
sp ir
newsp ap
m ur
comple te</w>
col um
co tton</w>
cam pus</w>
bel ow</w>
b i</w>
play ers</w>
ph on
pat ter
partici p
occur red</w>
lead er</w>
j ected</w>
increas ing</w>
ide as</w>
exam ples</w>
cen sus</w>
ba sic</w>
z inc</w>
y l
win d
pol ish</w>
metropol itan</w>
l ist</w>
ev al</w>
ban k</w>
ali ties</w>
9 0</w>
2 7</w>
ur ani
neigh bor
compar ed</w>
198 0s</w>
sur roun
pt on</w>
n' t</w>
me tal</w>
manufac tur
inv a
hab it
grow ing</w>
d ell</w>
coun ter
wh ere
str ong
sen se</w>
ori ties</w>
n ucle
n ers</w>
in o</w>
hi c</w>
gr anted</w>
fem ale</w>
dis e
d na</w>
aven ue</w>
2 8</w>
vic es</w>
un its</w>
tr u
pres s</w>
ish ment</w>
fre e
domes tic</w>
cro s
car b
re al
prov in
pl ym
los s</w>
j er
f er</w>
ei ght</w>
commit tee</w>
cat eg
becom ing</w>
av ing</w>
we alth</w>
val ue</w>
tibet an</w>
progr ams</w>
ou ght</w>
individu als</w>
i res</w>
hin d</w>
gaddaf i</w>
us b</w>
territ ories</w>
sch war
p ul
mon th</w>
ma them
kore a</w>
i ous</w>
win ter</w>
retur ned</w>
r ati
popul ations</w>
pe ace</w>
pal ace</w>
ne ed</w>
meth od</w>
j es
it ors</w>
en ing</w>
av o
us h
techn i
p a</w>
old est</w>
g un
bor der</w>
al ready</w>
7 0</w>
2 6</w>
s ic
la y</w>
i .
found ation</w>
form at</w>
eg ger</w>
disc us
zen egger</w>
world wide</w>
v a</w>
transm it
schwar zenegger</w>
resid ents</w>
re main</w>
poten tial</w>
po st
cop per</w>
bri dge</w>
boo ks</w>
sh e
religi on</w>
q ur
issu e</w>
isra el
f o
enc our
de vices</w>
d y
chic ago</w>
be hind</w>
u tionary</w>
sur face</w>
orig in</w>
on c
medi eval</w>
g as</w>
am ed</w>
all o
wh om</w>
victor ia</w>
thous ands</w>
th in
mar ke
m ass
l ack</w>
im medi
el ess</w>
dog s</w>
cro ss</w>
cle ar</w>
ad ed</w>
u k
star ting</w>
no table</w>
multi ple</w>
j os
hu mans</w>
h ere</w>
dec re
campa ign</w>
b at
activi ties</w>
ti n</w>
t in
spok en</w>
soldi ers</w>
sc en
psy ch
onc é</w>
mi ght</w>
har d
ex ist</w>
degre e</w>
bey oncé</w>
199 0s</w>
tr ue</w>
ti an</w>
si an</w>
pres by
n es
libr ary</w>
le t</w>
b ing</w>
a ur
197 0s</w>
. :
reg ular</w>
pro posed</w>
mat ter</w>
mag az
is tics</w>
ho t</w>
histor ic</w>
cont ent</w>
citi z
arg ued</w>
ap plied</w>
adv ant
s an</w>
prussi a</w>
p p
p ain</w>
n ia</w>
mus ical</w>
inv esti
fer red</w>
exist ence</w>
defin ition</w>
buddh ism</w>
al ed</w>
addi tional</w>
0 0,000</w>
’ s</w>
z one</w>
por tu
par ti
no te</w>
mon ey</w>
m p
fe ature</w>
contin ue</w>
az i</w>
adel phi
ad ap
200 1</w>
18 4
y er</w>
theat re</w>
swit zer
s we
ric hard</w>
presby ter
pos si
l as
inva sion</w>
g ol
bac k
asi an</w>
wid es
trans l
ta king</w>
t own
t op
switzer land</w>
qu ick
phil adelphi
lead ers</w>
i ii</w>
fin ally</w>
e ties</w>
differ ences</w>
con tains</w>
ch r
ch op
an y
sal es</w>
rel ations</w>
re duced</w>
pres sure</w>
plym outh</w>
mi xed</w>
m y</w>
li ved</w>
j un
head quar
go ing</w>
form al</w>
en ligh
del i
d u</w>
con v
al p
spe aking</w>
ser ves</w>
s ity</w>
philadelphi a</w>
nam es</w>
mi ami</w>
k ish</w>
h ood</w>
enligh ten
dec ided</w>
co ver</w>
ch all
attac ks</w>
t ou
t em
song s</w>
ro me</w>
re stric
m ir
en ed</w>
da vi
attemp t</w>
appoin ted</w>
war s</w>
p ped</w>
n a
four th</w>
festiv al</w>
er al</w>
cre ation</w>
competi tion</w>
ch ap
ben ef
allow s</w>
agre ed</w>
2 5
vir g
no ted</w>
mil es</w>
l oo
gen etic</w>
flor ida</w>
dial ects</w>
d i</w>
chall eng
t ac
pl e
pers on
ol i
lou is</w>
hol ds</w>
gre w</w>
expan sion</w>
en ding</w>
ear th
dis covered</w>
bas is</w>
vi c</w>
ul tim
sp ring</w>
pr e</w>
me t</w>
lor d</w>
hel ped</w>
frequ ently</w>
chop in</w>
bur g</w>
200 2</w>
1 st</w>
val enci
sec ond
resul ts</w>
quick ly</w>
prob lem</w>
ph en
per formed</w>
ol der</w>
jo ined</w>
instr uments</w>
h a</w>
ex cept</w>
diffic ult</w>
cu b
ar ily</w>
apol lo</w>
up per</w>
st adi
spec ific
pur ch
promin ent</w>
n av
issu es</w>
in fr
i e</w>
hou ston</w>
ever y
eston ia</w>
cri tical</w>
consi sts</w>
bl ue</w>
bir th</w>
bir ds</w>
re publ
pres ence</w>
ph one</w>
l in</w>
in de
i p</w>
eff ective</w>
an der</w>
sub stan
re cent
qu es</w>
is s</w>
as sum
7 .
3 5</w>
2 9</w>
wides pre
widespre ad</w>
si vely</w>
proper ty</w>
pr ince</w>
occu p
hou se
h op
fl o
fa iled</w>
domin ant</w>
distinc t</w>
ag ing</w>
stre am</w>
produc t</w>
play ing</w>
oper ating</w>
no t
mo vi
insec ts</w>
g ri
comple ted</w>
comm and</w>
ci vil
be er</w>
an ce
196 0s</w>
val ley</w>
ta x
ri a</w>
provi des</w>
plac es</w>
ir on</w>
hi t</w>
dev ice</w>
control led</w>
c y</w>
b ap
tain ment</w>
sh ap
recent ly</w>
le e</w>
is on</w>
effor ts</w>
ec tively</w>
cour se</w>
bi o
bey ond</w>
ay ing</w>
wh ole</w>
un like</w>
sat ell
ro w</w>
ro bert</w>
per man
offic ials</w>
mun ici
mo tor</w>
metho ds</w>
ist an</w>
intel lig
ex clu
des er
c ab
av es</w>
ver e
val ent</w>
thom as</w>
ta x</w>
sup ply</w>
prussi an</w>
n avy</w>
k u
k ings</w>
i. e.</w>
gener ation</w>
g ained</w>
er ia</w>
davi d</w>
bur ke</w>
ar tic
3 1</w>
we ek</w>
view s</w>
un it</w>
sof t</w>
ro om</w>
re ve
r ich</w>
moun tain</w>
in come</w>
gi ve</w>
fiel ds</w>
appro ach</w>
ant a</w>
we ap
v i</w>
stud ent</w>
sou theast</w>
progr amm
pow er
ph al
o v
mach ine</w>
increas ingly</w>
gu n</w>
g old</w>
fin d</w>
fa il
equ ip
deri ved</w>
b ia</w>
am pton</w>
temper atures</w>
sci ences</w>
s a</w>
run ning</w>
rail way</w>
n ine</w>
mater ials</w>
manag ement</w>
loc ation</w>
li by
ide a</w>
e ful</w>
develop ing</w>
defe ated</w>
cor ru
as tic</w>
appe ar</w>
tt ers</w>
so vere
s ent
rul ed</w>
mag ne
ire land</w>
inten ded</w>
gro un
exp ected</w>
en co
eff ects</w>
democr atic</w>
de ta
an o</w>
stadi um</w>
st and</w>
ro und</w>
respec tively</w>
r am
o de</w>
mathem atic
issu ed</w>
ic a</w>
dec ision</w>
con sequ
a war
vo te</w>
st af
se attle</w>
pr on
mar sh
m m</w>
it or</w>
int ell
he at</w>
dist ingu
del hi</w>
co ast
c a</w>
vers ity</w>
tel e
stor ed</w>
lear ning</w>
enlighten ment</w>
contr ast</w>
co very</w>
re mo
re ason</w>
ograph y</w>
n er
in ated</w>
he av
h ell
di versity</w>
colon ies</w>
bu s</w>
as ser
arm en
al th
a e
vic tory</w>
tic ism</w>
sto res</w>
serv ing</w>
second ary</w>
pos s
ph ase</w>
le a
al ty</w>
accoun t</w>
u t</w>
st ar</w>
spe ech</w>
south ampton</w>
sim ply</w>
rul es</w>
r ates</w>
pi ed</w>
l ength</w>
kil om
inter nal</w>
inst ance</w>
ill s</w>
identi fied</w>
gi ving</w>
est er</w>
en ough</w>
e y
d al
commun ist</w>
b att
assem bly</w>
allow ing</w>
st er
secre tary</w>
protec tion</w>
p aci
necess ary</w>
m ale</w>
liber al</w>
let ter</w>
i po
es is</w>
e er</w>
cla im</w>
bl oc
bil l</w>
3 ,
re sources</w>
pr o</w>
peri o
occu pied</w>
ne g
nan jing</w>
m 2</w>
lo s</w>
impl em
cu bs</w>
cor rec
cl oth
champi on
broad cast
b or</w>
aut onom
ang el
a id</w>
t ting</w>
sh are</w>
s r</w>
respon sible</w>
reg im
re sistance</w>
prev ent</w>
pre ci
liter ary</w>
d .</w>
comb ined</w>
citiz ens</w>
austri a</w>
ap par
academ ic</w>
9 .
th ers</w>
t ations</w>
show s</w>
recor ding</w>
ra il</w>
poin ts</w>
ph y
min or</w>
jes us</w>
func tion</w>
f arm
ex plo
dial ect</w>
con f
cell s</w>
c z
c are</w>
bre ak</w>
8 .
tra vel
tit les</w>
st ra
sid es</w>
os is</w>
organiz ations</w>
organ ized</w>
neu mann</w>
mandol in</w>
li t</w>
in ations</w>
her it
g ain</w>
ell a</w>
dol l
de al</w>
cust om
coll ection</w>
ash ken
accep ted</w>
18 0
ys is</w>
urani um</w>
t as
sh own</w>
s ac
rou gh
purpos e</w>
ph ot
elec tions</w>
dest roy
dar win</w>
com posed</w>
c ar</w>
b oun
ar ist
ad dre
ti li
te en</w>
sec tor</w>
pre par
practic es</w>
po or</w>
ph o
p y
k an
is ing</w>
intellig ence</w>
h ost</w>
great est</w>
ex er
engine ering</w>
e ous</w>
dec ade</w>
colon ial</w>
b on
b ce</w>
4 5</w>
repres ented</w>
medic ine</w>
ma xim
gal ic
fl ow
e ding</w>
direc tor</w>
dec lin
cour ts</w>
contin ent</w>
chan nel</w>
c um
an ia</w>
1 –
0 –
ti le</w>
sim ple</w>
settl ement</w>
sa x
remain ing</w>
pro ce
paci fic</w>
n es</w>
mol ec
lic en
it a</w>
im pact</w>
b ol
a ward</w>
199 1</w>
wor ked</w>
where as</w>
the dr
techn ical</w>
staf f</w>
somal i</w>
sign al</w>
si x
op posed</w>
oo d
ne ar
l ingu
j ec
hos p
h ill</w>
h ic
frequ ency</w>
dec ades</w>
con tain</w>
com pos
ca thedr
to m</w>
sou ght</w>
signific antly</w>
ri st
re duce</w>
re asons</w>
rac y</w>
qu ake</w>
pol and</w>
pen insul
oc ean</w>
kore an</w>
it er
hell en
gen es</w>
foc us</w>
f f</w>
f as
carri ed</w>
capac ity</w>
b ig
ast er</w>
vil le</w>
tradi tionally</w>
t on
se g
recogn ized</w>
re ven
n d</w>
me ant</w>
kin d</w>
direc tion</w>
dec line</w>
c m</w>
7 5</w>
tur kish</w>
spe ak
s n
s ites</w>
li es</w>
in cid
f a</w>
elec tro
e ting</w>
at tribu
w r
ter ed</w>
por ting</w>
ma ster</w>
hear t</w>
h em
for t</w>
fol k</w>
exten ded</w>
expan ded</w>
do g</w>
devel op</w>
contin ental</w>
comm on
com es</w>
charg e</w>
al as
adv anced</w>
tra ff
ti to</w>
re bel
nav al</w>
mo di
min im
le tters</w>
k i
im age</w>
gu ar
evol ution</w>
environ ment</w>
des c
com ics</w>
car ni
c able</w>
c .</w>
b ay</w>
aut om
as h</w>
wee ks</w>
str u
ro l
re v
play er</w>
over all</w>
la ke</w>
inv est
great ly</w>
g ate</w>
fac tors</w>
exten sive</w>
e try</w>
dis pu
ab sor
ab ad</w>
3 00</w>
wa ve</w>
v a
tur ned</w>
t y
rou te</w>
plann ed</w>
open ing</w>
mo d
ma d</w>
intell ec
in al</w>
ess es</w>
equ i
enter tainment</w>
cu t</w>
communic ation</w>
col d</w>
b in
ant arc
6 5</w>
199 0</w>
198 9</w>
v acu
under standing</w>
t i</w>
subsequ ently</w>
s h</w>
rough ly</w>
ren ew
or ed</w>
magaz ine</w>
ma kes</w>
k h
j ac
israel i</w>
f ar
extre m
er ly</w>
environ mental</w>
clos ed</w>
austral ian</w>
aff airs</w>
2 4
w el
us $
subsequ ent</w>
ra in
peninsul a</w>
nucle ar</w>
ib n</w>
f al
el ement</w>
depen ding</w>
cap tured</w>
cap e</w>
broad cast</w>
artic le</w>
z ing</w>
v in
ter nal</w>
t our</w>
prob ably</w>
m id</w>
lin k</w>
l ers</w>
k et
gradu ate</w>
g ir
emerg ed</w>
cop y
cer em
can di
bap ti
town s</w>
s in
pro pos
posi tions</w>
play s</w>
pl ans</w>
ori entation</w>
op position</w>
olymp ic</w>
ograp hic</w>
offic ers</w>
laun ch</w>
ir ish</w>
grad ually</w>
er o
destroy ed</w>
d or
d ges</w>
cir cu
ay ed</w>
applic ation</w>
tr ack</w>
sw iss</w>
stand ards</w>
p es
oper ated</w>
north western</w>
ici ans</w>
h us
govern ments</w>
exist ing</w>
applic ations</w>
anim al</w>
anal ysis</w>
ach es</w>
writ ers</w>
un ity</w>
te l</w>
sp ac
se x</w>
pass eng
p il
migr ation</w>
mat ch</w>
hosp ital</w>
f light</w>
establ ishment</w>
d one</w>
conven tion</w>
aff ili
ab ol
view ed</w>
t ol
se ts</w>
pre mi
pre ce
p in
p as
op port
not ably</w>
la m</w>
ga ther
for c
evol ved</w>
ed ul
d ay
cul tures</w>
con cep
cent s</w>
ar sen
v ent
tex ts</w>
su st
pr us</w>
posi tive</w>
nu tri
headquar ters</w>
ha ye
fif th</w>
domin ated</w>
distribu tion</w>
defe at</w>
cy prus</w>
con clud
character istics</w>
bra z
appear ance</w>
alter native</w>
all ed</w>
administr ative</w>
4 00</w>
3 2</w>
2 nd</w>
vol t
struc tures</w>
sch edul
regar ded</w>
re duc
off er</w>
mo del
influ ential</w>
ger man
f ying</w>
f la
ent ered</w>
el im
dise ase</w>
compl et
ch rist
bi g</w>
w are</w>
uni que</w>
tu m</w>
situ ation</w>
show ed</w>
p ay</w>
ir a
import ance</w>
haye k</w>
equ al</w>
electr ical</w>
effor t</w>
e asi
constitu tional</w>
com ing</w>
b bc</w>
alex ander</w>
al es</w>
17 9
vol um
ve hic
tr e</w>
targ et</w>
s ay</w>
ref used</w>
re ach</w>
po p</w>
perman ent</w>
off ered</w>
ne go
nego ti
ma c</w>
lo ve</w>
ligh ting</w>
incorpor ated</w>
free dom</w>
featur ed</w>
fa ith</w>
f bi</w>
compu ters</w>
complet ely</w>
ar rang
y ment</w>
val ues</w>
tor ch</w>
test ing</w>
si r</w>
pro mis
poli tics</w>
organis ms</w>
or che
orche str
olog ies</w>
li sted</w>
kilom et
k y</w>
hy der
hol y</w>
feder ation</w>
fac il
ex change</w>
ess or</w>
christi an
auth orities</w>
anal y
ac tually</w>
a wards</w>
a be
195 0s</w>
we ight</w>
tow ard</w>
sett led</w>
proper ties</w>
me an</w>
in struc
h is
g all
cei ved</w>
carb on</w>
behavi or</w>
atten tion</w>
attemp ted</w>
arch i
ar ian</w>
achi eved</w>
a im
ro r</w>
ra ised</w>
mar i
ic ity</w>
eston ian</w>
e ks</w>
dri ve</w>
d ated</w>
cre d
conserv ative</w>
coll ap
c li
c d</w>
ati on
as on
ance stry</w>
ag ency</w>
3 0
199 7</w>
vacu um</w>
ur ed</w>
sp on
s li
pat ent</w>
occu r</w>
mov ements</w>
en na</w>
e e</w>
doc tr
degre es</w>
cro w
buddh ist</w>
b ands</w>
advant age</w>
5 –
16 th</w>
y st
um s</w>
ref ers</w>
qur an</w>
presbyter ian</w>
o ther
is s
form erly</w>
f ell</w>
di pl
dam age</w>
con ference</w>
al le
17 8
1 1
x box</w>
we a
u tes</w>
th ings</w>
surroun ding</w>
sam ur
pro te
ob serv
newspap er</w>
mit ted</w>
deser t</w>
d on</w>
corpor ation</w>
construc ted</w>
conn ected</w>
aff ir
ac ted</w>
ul ation</w>
u re
tr a</w>
str ength</w>
st atis
sla vic</w>
scri p
rel ative</w>
re ign</w>
re comm
provin ces</w>
neg ative</w>
main tained</w>
main tain</w>
is ation</w>
gl aci
ext ent</w>
claim s</w>
christi ans</w>
auth or
ati an</w>
as a</w>
academ y</w>
wor kers</w>
w all</w>
v isi
us ers</w>
tri ed</w>
ti l
the ories</w>
ten nes
st op</w>
provi ding</w>
princi ple</w>
power ful</w>
ob jects</w>
neu tr
min ority</w>
mex ican</w>
m ess
jur is
emplo ye
dipl om
defen se</w>
compon ents</w>
colon y</w>
catal an</w>
cali for
c ris
b is
an ian</w>
ad ult</w>
acqu ired</w>
2 –
ud a</w>
tu c
tion ed</w>
stor age</w>
scri pt</w>
satell ite</w>
samur ai</w>
s ar
r i</w>
produc ing</w>
pres sed</w>
pa id</w>
may or</w>
gos la
go al</w>
et c</w>
dr in
cro wn</w>
comm ission</w>
clos ely</w>
c ell</w>
alas ka</w>
ach ing</w>
ab and
we b</w>
vo ted</w>
tr av
suff ered</w>
sel ling</w>
ra y</w>
ques tion</w>
p s
or dered</w>
oper ate</w>
on ian</w>
manufactur ing</w>
m erg
lin e
l un
intro duction</w>
egyp tian</w>
dou ble</w>
consi st
con c
br on
arti st</w>
aff ected</w>
yu gosla
w ise</w>
transi tion</w>
run s</w>
read ing</w>
re jected</w>
pur su
popul arity</w>
phil ip</w>
m enti
leg es</w>
histor ians</w>
gr an
gen e</w>
func tions</w>
ex pos
el iz
clu bs</w>
alli es</w>
199 8</w>
wind ows</w>
w anted</w>
tow er</w>
sur ve
stu dio</w>
r .</w>
mi x
ipo d</w>
in side</w>
heav ily</w>
fol low</w>
equip ment</w>
dis ci
determin ed</w>
decl ar
cre ating</w>
cardin al</w>
car ry</w>
bu re
bi tion</w>
7 8</w>
17 th</w>
ul ty</w>
tre ati
tennes see</w>
si mul
s ony</w>
s cre
r o</w>
p age</w>
or al</w>
m om
jour n
iz ing</w>
initi al</w>
hyder abad</w>
h ur
h our</w>
g ym
elev ator</w>
di an</w>
den sity</w>
d '
christian ity</w>
bish op</w>
b all
af ter
3 3</w>
y el
tro p
st al
sla ves</w>
republ ican</w>
p el
mem ber
ke pt</w>
indi gen
in nov
hun d
exer c
er ies</w>
ent ing</w>
eliz abe
el berg</w>
dr am
com cast</w>
cir cul
at om
weap ons</w>
w ol
ti ves</w>
sugg ested</w>
pre dic
phen om
o st
mon arch
mar ine</w>
ho u</w>
dat ab
col leges</w>
cathedr al</w>
califor nia</w>
b un
ab les</w>
w s</w>
v ar
transpor t</w>
ta kes</w>
spi elberg</w>
sen s
s election</w>
re view</w>
ran ean</w>
per form</w>
p c</w>
nov el</w>
new ly</w>
k m2</w>
indigen ous</w>
histor ically</w>
ham mad</w>
gym n
go thic</w>
gen ome</w>
form ally</w>
com pression</w>
cap able</w>
bar cel
arm s</w>
un ic
ultim ately</w>
tu s</w>
traff ic</w>
sub ur
scienti sts</w>
relation ships</w>
re form</w>
protec t</w>
pro ved</w>
pres ented</w>
pre dat
ph ere</w>
musli ms</w>
mac ed
ke ep</w>
ep is
ei gh
d an</w>
cri me</w>
com pre
coll ec
bran ch</w>
bl es</w>
barcel ona</w>
al s
z a</w>
we b
t om
sh ared</w>
se y</w>
repres ent</w>
r ural</w>
pr ice</w>
mo ving</w>
menti oned</w>
med iter
me eting</w>
li ghts</w>
it able</w>
figh ting</w>
fe et</w>
ef s</w>
dis covery</w>
di e</w>
corru ption</w>
cloth ing</w>
ch ron
c av
bi ological</w>
ac compan
a str
6 00</w>
199 9</w>
suc ce
polic ies</w>
ph as
or ders</w>
marri ed</w>
in n
hund red</w>
hap s</w>
g a</w>
electr onic</w>
earth quake</w>
dis crimin
copy right</w>
conduc ted</w>
appro ved</w>
al bert</w>
a e</w>
y ers</w>
vis it</w>
v it
ul ts</w>
t ree</w>
stru gg
sp lit</w>
sh el
se as</w>
ref er</w>
recei ve</w>
r al
presid ential</w>
per haps</w>
peo ples</w>
occur s</w>
o d
n inten
ninten do</w>
mediter ranean</w>
m arg
join t</w>
j a</w>
immedi ately</w>
ig n
hu an</w>
fac ili
en jo
educ ational</w>
common wealth</w>
class es</w>
asp ir
al ing</w>
ac cur
th ur
te enth</w>
se asons</w>
s anta</w>
re lay</w>
rap id</w>
qu an
pro t
lead ership</w>
k o
id ly</w>
facili ties</w>
em y</w>
e ter</w>
carni val</w>
bus h</w>
ant ine</w>
a ks</w>
193 0s</w>
with dra
win ning</w>
treat ment</w>
tradi tions</w>
th r
tex as</w>
techni ques</w>
shi f
san sk
s ell</w>
re ta
re fu
re forms</w>
pro gres
p m</w>
no tes</w>
ne ther
min d</w>
maxim um</w>
magne tic</w>
his pan
ext inc
ex ternal</w>
eff ectively</w>
comm is
c os
awar ded</w>
attemp ts</w>
an n</w>
, 8
v ision</w>
us er</w>
tuc son</w>
sp ar
scot land</w>
sch em
revol utionary</w>
r hy
port ers</w>
pi on
mu hammad</w>
k y
jo hn
ish es</w>
in sp
id es</w>
fri end
establ ish</w>
emplo yed</w>
dom s</w>
di verse</w>
classi fied</w>
beli eve</w>
arsen al</w>
ap ar
199 4</w>
z o
z i
t ap
t an</w>
re vi
re moved</w>
ra in</w>
qu ali
pro per</w>
portu gu
portugu ese</w>
ob ject</w>
nor mal</w>
l ac
ing ing</w>
im prov
ib m</w>
hun dre
groun ds</w>
fun dam
extrem ely</w>
experi enced</w>
er it
elizabe th</w>
e ge</w>
do or</w>
de tec
c all</w>
b ow
audi ence</w>
at o</w>
an ism</w>
al d</w>
th esis</w>
ten d</w>
sil ver</w>
sansk rit</w>
s lo
ris k</w>
requ ire</w>
rap idly</w>
princi ples</w>
out put</w>
north west</w>
near by</w>
mic ha
mar ks</w>
l ad
in habit
im on</w>
i um</w>
f ought</w>
conver ted</w>
const ant</w>
ch os
ch ester</w>
cal cul
ber m
as phal
arri ved</w>
agricul ture</w>
adv oc
achi ev
a x
198 8</w>
wi fe</w>
trav el</w>
teach ing</w>
t ar
stre ets</w>
strateg y</w>
simil arly</w>
pli es</w>
pat ri
on line</w>
marri age</w>
liby a</w>
juris dic
intellec tual</w>
impro ved</w>
herit age</w>
fig ures</w>
ess ential</w>
enti rely</w>
e u</w>
distinc tion</w>
bir d</w>
at a</w>
ashken azi</w>
a h
5 ,000</w>
wee k
v ast</w>
v an</w>
ul ated</w>
typ ical</w>
transm ission</w>
techn ologies</w>
s now</w>
rese arch
r d</w>
prof it</w>
pers ons</w>
p ping</w>
p ass</w>
meas ures</w>
m es
le aving</w>
is lam</w>
hundre ds</w>
gun s</w>
gre en
g est</w>
g an</w>
fre der
ell ing</w>
disci pl
de dic
cont act</w>
con fir
compre hen
c er</w>
bour g</w>
an e</w>
ac tual</w>
[ citation</w>
199 6</w>
the tic</w>
the ore
suff ici
suc c
sp ent</w>
sol u
s mo
s l
ro ads</w>
quar ter</w>
par ents</w>
nig eria</w>
industri es</w>
ess ed</w>
erit re
equi valent</w>
ed ward</w>
disc s</w>
cz ech</w>
continu es</w>
bro ther</w>
bo ys</w>
beg in</w>
alli ance</w>
8 –
writ es</w>
volt age</w>
vi et
trans fer</w>
reve aled</w>
requ ires</w>
op pos
moun t</w>
mechan ical</w>
lo y
jus tice</w>
j am
in her
fr u
fail ure</w>
expen sive</w>
deb ate</w>
cri tics</w>
coast al</w>
cir cum
berm uda</w>
arab ic</w>
ang lo</w>
194 0</w>
wom an</w>
valenci a</w>
ud es</w>
thre at</w>
st ood</w>
ri c</w>
re ports</w>
re plac
pris ing</w>
phys ics</w>
li ves</w>
lab or</w>
insp ired</w>
immigr ants</w>
g oods</w>
g ar</w>
expres sed</w>
em phas
bro ke</w>
bl ood</w>
b ou
architec tural</w>
al ps</w>
al one</w>
adoles cents</w>
2 3
199 2</w>
z hou</w>
ter y</w>
s elec
ro se</w>
pro jects</w>
pes tici
p ag
o ch
nor m
no bility</w>
lim its</w>
l ying</w>
king doms</w>
hu a</w>
fle et</w>
electr icity</w>
du ke</w>
dru g</w>
dro pped</w>
declin ed</w>
de plo
compon ent</w>
bl ed</w>
be y</w>
appro pri
195 0</w>
up date</w>
sty les</w>
strong ly</w>
regar ding</w>
pen n
nether lands</w>
neigh bour
my an
mis si
man aged</w>
k i</w>
jo in</w>
inhabit ants</w>
hy po
hou sing</w>
d au
consol e</w>
concer ns</w>
chos en</w>
cho ice</w>
ca using</w>
c in
attac ked</w>
ass ent</w>
4 –
20 s</w>
v eg
success fully</w>
sub jects</w>
su b</w>
specific ally</w>
sequ ence</w>
represent atives</w>
refer ence</w>
ra j
r are</w>
pri ze</w>
o g</w>
n it
myan mar</w>
la bel</w>
j ective</w>
is ol
id ol</w>
i ghts</w>
ger mans</w>
emo tion</w>
ei gh</w>
cl ar
ci a</w>
ch ain</w>
by z
as ked</w>
albu ms</w>
al leg
1 ,000</w>
ze al
vis ited</w>
vari ation</w>
ta i
s aying</w>
respon si
r he
on to</w>
l ess
he ight</w>
dig imon</w>
dec or
cris is</w>
co ali
car eer</w>
bal k
ath le
at mos
achi eve</w>
vol un
s sed</w>
origin ated</w>
ne pt
micha el</w>
mat ches</w>
fas hi
f are</w>
emo tions</w>
el d</w>
dre w</w>
de ep</w>
d c</w>
clas sic</w>
champion ship</w>
alli ed</w>
al i</w>
8 th</w>
wh e
v ary</w>
tri bes</w>
tit ude</w>
sla ve</w>
sever e</w>
s q</w>
reven ue</w>
phil ip
p ak
man h
jos ep
josep h</w>
jo bs</w>
ig nor
hu man
hel ena</w>
enc ing</w>
edi tion</w>
dis h</w>
differ ence</w>
dem and</w>
de struc
cop ies</w>
char le
c au
becom es</w>
ban ks</w>
anc est
al ties</w>
addi tionally</w>
13 th</w>
vill age</w>
ter r
strateg ic</w>
si gn</w>
ser ious</w>
s le
ru p
rac es</w>
purpos es</w>
o ke</w>
m amm
ligh tly</w>
k a
g ations</w>
freder ick</w>
fac tor</w>
expos ure</w>
e ing</w>
dist ance</w>
den om
d ang
consi der</w>
communic ations</w>
colum bia</w>
by u</w>
arm ies</w>
ann ually</w>
5 5</w>
wor th</w>
wat er
u ght</w>
tr ading</w>
some thing</w>
sh ell</w>
saf ety</w>
s atur
r an</w>
pre y</w>
offic es</w>
n or</w>
n avi
movi e</w>
manh att
ma h
m it</w>
hellen istic</w>
ha y
gre eks</w>
galic ia</w>
em er
distric ts</w>
dedic ated</w>
cy cle</w>
contribu ted</w>
concer t</w>
cast le</w>
c amer
b ile</w>
appe ars</w>
9 5</w>
4 8</w>
ver sions</w>
ul es</w>
tic a</w>
sh oo
russi ans</w>
respec t</w>
re s
po etry</w>
ox ide</w>
os h</w>
ob served</w>
n i</w>
mo tors</w>
mo tion</w>
is es</w>
h it
fel t</w>
f all
ex ce
et ary</w>
descri be</w>
cr yst
consider able</w>
chang ing</w>
ca uses</w>
c bc</w>
bur y</w>
b and
atic ally</w>
ath an
an thro
al um
al co
we ar</w>
us age</w>
su peri
sist ed</w>
play station</w>
pe di
pe ak</w>
pal est
oper a</w>
medi um</w>
h oods</w>
foc used</w>
flo or</w>
ent er</w>
el led</w>
dy nam
dar k</w>
cor respon
astr onom
3 60</w>
197 0</w>
193 9</w>
win d</w>
uni verse</w>
speak ers</w>
sen si
sem i</w>
secre t</w>
re solution</w>
re serve</w>
public ation</w>
pris on
perio ds</w>
patter n</w>
op ini
on ia</w>
mon te
manhatt an</w>
le gi
k now</w>
german ic</w>
cy pri
connec tion</w>
comb ination</w>
coali tion</w>
char ter</w>
bac ter
4 ,
z es</w>
y l</w>
wrest ling</w>
w an</w>
volum e</w>
st ered</w>
ren amed</w>
ral eigh</w>
r on</w>
prac tical</w>
per ceived</w>
other wise</w>
op pon
gr ade</w>
fic ial</w>
ep ing</w>
employe es</w>
effici ent</w>
coun ter</w>
comp ounds</w>
bit um
b ian</w>
198 6</w>
194 5</w>
zeal and</w>
tur key</w>
ti a</w>
shi ft</w>
s lightly</w>
ro ots</w>
rest aur
protest ant</w>
on i
og en
marke ts</w>
jud ic
j i</w>
il ing</w>
gu am</w>
g ing</w>
g al</w>
fundam ental</w>
fore st</w>
fi xed</w>
ent y</w>
effici ency</w>
con taining</w>
ch t</w>
buddh a</w>
b its</w>
b ad
al ong
virg in
thre at
tem ple</w>
sup pl
regim e</w>
re ality</w>
qu anti
process es</w>
pe ter</w>
parli am
par alle
paralle l</w>
munici p
mul ti</w>
mil li
legisl ation</w>
kil l</w>
iss ance</w>
inter ven
int osh</w>
i tive</w>
fur ther
fri ends</w>
ex clud
ex ception</w>
ed ly</w>
e z</w>
democ racy</w>
de ad</w>
cri tici
cor ps</w>
contr act</w>
con tained</w>
athan asi
agricul tural</w>
ag u
a issance</w>
12 th</w>
y an</w>
v el</w>
tre ated</w>
sub si
soci eties</w>
sion ally</w>
scen e</w>
s or</w>
ph r
per sian</w>
ox y
ou l
nept une</w>
ne ver
nation ally</w>
moder n
lim it</w>
kilomet res</w>
j a
in jur
hi p</w>
gh ter</w>
fac ed</w>
f air
emplo yment</w>
ell s</w>
de pic
datab ase</w>
cro atian</w>
charle ston</w>
cardin als</w>
bre ak
bo dies</w>
beli ef</w>
b ann
avo id</w>
athanasi us</w>
ann ex
along side</w>
2 ,000</w>
17 5
transpor tation</w>
tr ain</w>
su sp
se at</w>
rhy th
produc er</w>
over seas</w>
ograph ical</w>
o u</w>
model s</w>
m .</w>
las er
jun c
inv ented</w>
histor ian</w>
ha z
gr and
doc uments</w>
di men
demonstr ated</w>
con trac
col labor
ch ro
c ant
b o</w>
b b
auth or</w>
as y</w>
6 4</w>
198 5</w>
194 9</w>
y cl
v ice</w>
th eless</w>
ta ught</w>
sy l
sup er</w>
sla very</w>
re action</w>
patter ns</w>
o bli
never theless</w>
monte video</w>
me tr
mas sive</w>
k el
institu tion</w>
f ast</w>
dri ven</w>
buil d</w>
bel ong
b os
asp ects</w>
as ing</w>
a er
9 9</w>
8 5</w>
4 2</w>
4 0
3 rd</w>
3 4</w>
15 0</w>
tw enty</w>
t am
sy ria</w>
stat ement</w>
st ock</w>
sou l</w>
sim pli
sec u
sec tions</w>
s ounds</w>
research ers</w>
pr ise</w>
op e</w>
og ue</w>
off ers</w>
o ted</w>
o es</w>
li f
la id</w>
j .</w>
integr ated</w>
inde x</w>
in fl
i f
f os
exist ed</w>
doc um
desc end
chr ist</w>
austri an</w>
alex and
al ization</w>
ac ks</w>
ab or
a a</w>
198 7</w>
us a</w>
ul a</w>
u tre
thur ing
th or
t ance</w>
sup porters</w>
sugg ests</w>
sugg est</w>
sen ate</w>
ri es</w>
requ ire
radi ation</w>
princi pal</w>
pol e</w>
pic ture</w>
p ure</w>
p ool</w>
mor ph
marsh all</w>
li thu
ira q</w>
inv en
hom es</w>
cover age</w>
cour ses</w>
co sts</w>
be au
asphal t</w>
6 6</w>
199 5</w>
197 9</w>
194 1</w>
wh y</w>
visi ble</w>
terr or
som er
sh op
se ems</w>
sam o
r ar
pun k</w>
possi bly</w>
philos op
par ks</w>
p um
p ay
os exual</w>
origin s</w>
off en
oc curr
num ber
mo bile</w>
mini stry</w>
mechan ism</w>
meas ure</w>
inter ests</w>
impro ve</w>
immigr ation</w>
ic als</w>
h ands</w>
em ed</w>
di am
dec isions</w>
d v
consum ption</w>
conclud ed</w>
con sul
bom bing</w>
bapti st</w>
ag encies</w>
ad ver
ab bey</w>
a qu
7 –
6 –
5 th</w>
5 ,
201 6</w>
10 ,000</w>
w er</w>
w alls</w>
tw ice</w>
trop ical</w>
the ast
stu di
st ers</w>
s and
re in
poly techn
occa sionally</w>
norm ally</w>
min utes</w>
met res</w>
member ship</w>
further more</w>
fran k
fr ame</w>
foun ding</w>
fav or</w>
f ile</w>
experi ences</w>
consi sting</w>
concer ned</w>
comprehen sive</w>
ch air
c ence</w>
affir m
7 6</w>
3 –
writ er</w>
wea ther</w>
vo ice</w>
virgin ia</w>
theast ern</w>
t elec
syst em
substan tial</w>
stu died</w>
st able</w>
sec ular</w>
recei ving</w>
re tained</w>
qu ite</w>
prof essor</w>
process ing</w>
pro portion</w>
phys ic
n am</w>
me et</w>
jud ges</w>
jud a
gro w</w>
gi ves</w>
ent ry</w>
du m</w>
div isions</w>
d ry</w>
d ly</w>
d ating</w>
cri ticism</w>
classi fication</w>
campa ig
bure au</w>
bo t
bitum en</w>
abil ities</w>
9 –
9 2</w>
7 3</w>
3 6</w>
wor k
wid th</w>
us eful</w>
tri al</w>
treati es</w>
sun day</w>
ste el</w>
stand ar
stan ces</w>
sol ved</w>
six th</w>
shor tly</w>
s core</w>
ri an</w>
re pu
r h
quan tum</w>
pen alty</w>
minist ers</w>
mac intosh</w>
m es</w>
m ent
legisl ative</w>
judic ial</w>
ho sted</w>
gen der</w>
easi ly</w>
doll ar</w>
develop ments</w>
d st</w>
coun t</w>
cor k</w>
cont ext</w>
byz antine</w>
br ing</w>
anc y</w>
8 0
5 0
4 4</w>
z ation</w>
wal es</w>
utre cht</w>
ti fied</w>
tele phone</w>
st a
spe ak</w>
sovere ign</w>
simul tan
sic huan</w>
s elected</w>
ra ine</w>
r us
pr ices</w>
pop per</w>
pl us</w>
p air</w>
ong st</w>
mon arch</w>
li st
j ack
h ence</w>
gen e
f at
encour aged</w>
doctr ine</w>
discrimin ation</w>
d p</w>
con sci
cent ers</w>
bre w</w>
bish ops</w>
b ic
ast s</w>
ar tis
angel es</w>
am ongst</w>
ac ting</w>
3 8</w>
198 0</w>
196 7</w>
tour ism</w>
t empor
s cul
ri vers</w>
r is</w>
r at
pu er
pu bs</w>
pre ferred</w>
plann ing</w>
per f
p itation</w>
p ir
olog ists</w>
l ec
indic ate</w>
im pe
for ward</w>
f it
f ish</w>
exhi bition</w>
en h
emp ir
ec es</w>
direc ted</w>
contro versi
comman der</w>
cl ock</w>
character ized</w>
cal end
bel gi
ar ing</w>
ar bor</w>
198 4</w>
wr ite</w>
wid er</w>
we alth
v ity</w>
thu r</w>
t ment</w>
sym b
sign als</w>
ro y</w>
resid ential</w>
rad ical</w>
pu b</w>
promo ted</w>
pro gre
progre ss</w>
preci pitation</w>
ph er
p ati
min ster</w>
mil e</w>
mer cur
m att
low est</w>
lam ps</w>
l um
is ms</w>
i x</w>
hispan ic</w>
gu ard</w>
gener ated</w>
gar den</w>
fa ir</w>
emo tional</w>
conver sion</w>
cont est
comb at</w>
affirm ative</w>
[ update</w>
199 3</w>
z h
vari eties</w>
us sr</w>
trac ks</w>
ti er</w>
suffici ent</w>
str as
spec tive</w>
si ege</w>
se tting</w>
s as</w>
prote in</w>
programm ing</w>
per forming</w>
pak istan</w>
p c
p ack
offic er</w>
mp 3</w>
mal es</w>
main stream</w>
long est</w>
li e</w>
hu a
hard ware</w>
grap h
g ated</w>
fran ch
fl ow</w>
fi ght</w>
fashi on</w>
emphas is</w>
e ur
cl in
ch a
bil l
assum ed</w>
ass es</w>
ar thur</w>
an try</w>
accompan ied</w>
ac id</w>
aband oned</w>
6 th</w>
4 9</w>
196 8</w>
vis itors</w>
us al
unic ode</w>
tiv ated</w>
tis m</w>
t ons</w>
subur bs</w>
some what</w>
sk i</w>
sh ire</w>
ren aissance</w>
re r</w>
puer to</w>
prin t</w>
pic tures</w>
philip p
ordin ary</w>
mercur y</w>
mamm als</w>
ll ery</w>
juda ism</w>
it ems</w>
invest ment</w>
interpre tation</w>
inter ior</w>
ho sts</w>
gen cy</w>
g ary</w>
fun ding</w>
foun der</w>
enti ally</w>
declar ation</w>
cor resp
com position</w>
chi hua
categ ories</w>
bro w
big gest</w>
b ar</w>
b ab
ay a</w>
6 3</w>
u r</w>
succe eded</w>
stras bourg</w>
sp er
separ ated</w>
s tim
s av
ro oms</w>
reduc ing</w>
re sem
rati o</w>
pol og
p ac
or ation</w>
o is</w>
nor theast</w>
n as</w>
micro soft</w>
lin ked</w>
ir ing</w>
inv aded</w>
inf ra
incre ases</w>
in o
hu b</w>
hol ding</w>
gu it
fos si
featur ing</w>
fe yn
f on
ex c
estim ates</w>
es sive</w>
dro p</w>
depend ent</w>
cre te</w>
comp ati
co ol
cl er
bro wn</w>
be i
az a</w>
ab sol
6 ,
. c</w>
é e</w>
w ire</w>
un ci
tw el
ther mal</w>
t old</w>
spor t</w>
spir it
ric h
oxy gen</w>
on ing</w>
oli thic</w>
oc ks</w>
oc k
mus icians</w>
mer ely</w>
m o</w>
ket ball</w>
ji ang</w>
jer usal
he ter
g ers</w>
fic ations</w>
feyn man</w>
design ated</w>
critici zed</w>
conqu est</w>
c us</w>
br inging</w>
bas ketball</w>
b ond</w>
arti llery</w>
ar ena</w>
ap art</w>
accoun ts</w>
3 7</w>
197 4</w>
yel low</w>
v als</w>
st ance</w>
somer set</w>
sla v
si zed</w>
se ats</w>
recogn ition</w>
ra m</w>
philosoph ical</w>
ne eds</w>
mem orial</w>
mathematic s</w>
lor ds</w>
lan ding</w>
ke eping</w>
k ill
john son</w>
jerusal em</w>
house hold</w>
h d
gi l</w>
fu sion</w>
fre em
ex pedi
emp ha
ec h
e ously</w>
des cent</w>
conqu ered</w>
commer ce</w>
braz il</w>
avi an</w>
y our</w>
usu al</w>
u d</w>
tion ing</w>
sup porting</w>
s ex
prot oc
pro hi
priv il
pre c
pi eces</w>
ou ter</w>
om es</w>
mach ines</w>
los ses</w>
la sted</w>
j ection</w>
infr ing
in ner</w>
grow n</w>
govern ed</w>
ex ists</w>
er r
er n
dis play</w>
de pu
cre di
conv enti
celebr ated</w>
bud get</w>
bu c
bill board</w>
anthro polog
als ace</w>
ad o</w>
ad ers</w>
4 6</w>
198 2</w>
197 8</w>
197 6</w>
yugosla via</w>
west minster</w>
viol ent</w>
un able</w>
ul e</w>
tu ber
tr act</w>
t all
ste p</w>
stal in</w>
sor t</w>
shop ping</w>
sen ior</w>
s ays</w>
rang es</w>
protest s</w>
p av
net works</w>
ne i
matt ers</w>
lea ve</w>
l i</w>
j e
influ ences</w>
in ity</w>
ho tel</w>
extre me</w>
e o</w>
determin e</w>
cover s</w>
correc t</w>
broadcast ing</w>
bro ad</w>
ber lin</w>
aw are</w>
appro val</w>
aff ect</w>
9 ,
7 th</w>
196 9</w>
14 th</w>
wil d</w>
wh it
ti ally</w>
t ings</w>
st op
spi rit</w>
somal ia</w>
s low
s anc
ro w
reg ularly</w>
refer en
recor dings</w>
rar ely</w>
rang ing</w>
r pm</w>
pat h</w>
pa th
neu ro
lo dge</w>
kn ess</w>
kan sas</w>
head ed</w>
har v
gu ine
fig ure</w>
es h</w>
em br
econom ics</w>
do ing</w>
d r</w>
d an
con s
cin em
challeng e</w>
bre w
bor ders</w>
amoun ts</w>
4 1</w>
15 th</w>
wil d
ul ate</w>
u tili
u ality</w>
tuber cul
st ating</w>
sm ith</w>
sk in</w>
shap e</w>
s en</w>
rul ers</w>
rel ation</w>
r ice</w>
mis sions</w>
mic hi
meas ured</w>
manag er</w>
lead s</w>
l ook</w>
k al
infr ared</w>
ide al</w>
ic ism</w>
ho l</w>
he brew</w>
fil es</w>
fac ts</w>
f ans</w>
ex emp
establ ishing</w>
est ing</w>
en sure</w>
differ enti
destruc tion</w>
consum er</w>
co ordin
chihua hua</w>
cerem ony</w>
bran ches</w>
bei jing</w>
be gun</w>
as th
adoles cence</w>
ac cept</w>
191 4</w>
yu an</w>
veg et
v aries</w>
thous and</w>
there by</w>
them e</w>
st ages</w>
south west</w>
rul er</w>
repres entation</w>
re duction</w>
protec ted</w>
pol l
per ception</w>
oun c
organis ation</w>
orchestr a</w>
oper ates</w>
nei ther</w>
n y</w>
michi gan</w>
me at</w>
infra structure</w>
ic h
gr ant</w>
go als</w>
geor gi
gen re</w>
fun d</w>
fil led</w>
execu ted</w>
exec ution</w>
et on</w>
del eg
cr us
cou p</w>
circu it</w>
cap p
bro thers</w>
benef it</w>
ben e
beg ins</w>
bal ance</w>
antarc tica</w>
addre ss</w>
4 th</w>
194 8</w>
ur u
ur g
to x
sur ren
sn ow
sk y</w>
sh ot</w>
ro les</w>
ris ing</w>
ri val</w>
restric ted</w>
repres ents</w>
pl ain</w>
ph arm
per cent
our ed</w>
neighbor hoods</w>
mil len
mar vel</w>
l es
l ar
in do</w>
im plic
im ages</w>
gir ls</w>
g ul
franc is
fac es</w>
expres sion</w>
et ts</w>
elev ators</w>
cred ited</w>
conduc t</w>
compar ison</w>
cl ou
carri er</w>
car r
cap ture</w>
busin esses</w>
bro ken</w>
bl ing</w>
arch ae
ar re
appar ent</w>
an i</w>
alp ine</w>
alco hol</w>
ag gres
adv ance</w>
4 3</w>
3 5
198 3</w>
19 20s</w>
ó n</w>
w arm
vo ting</w>
ver te
under stand</w>
un d
the ater</w>
t ab
success or</w>
settl ers</w>
scot tish</w>
sa har
rul ing</w>
regul ations</w>
ra inf
ques tions</w>
produc es</w>
phenom en
ph ar
p ush
op hy
occup ation</w>
nic kn
mo tor
li qu
le ts</w>
instr ument</w>
h ong</w>
f ine</w>
evol utionary</w>
ent r
en forc
dru gs</w>
custom ers</w>
crimin al</w>
consol id
concentr ated</w>
categ ory</w>
calend ar</w>
bl acks</w>
b .</w>
attrac ted</w>
ach us
10 0,000</w>
w ood
voc al</w>
vo tes</w>
vis ual</w>
uru gu
tor ies</w>
thr one</w>
studi os</w>
sist er</w>
s atis
s ab
rainf all</w>
ob tained</w>
necess arily</w>
mass achus
massachus etts</w>
mar tin</w>
man chester</w>
m ist
m as</w>
l uc
k ong</w>
invol ving</w>
incid ent</w>
in sur
ill u
gol den</w>
g y
fla g</w>
expl an
em b
e x</w>
con feder
can al</w>
bri g
autonom y</w>
ath s</w>
ar ose</w>
a ic</w>
8 8</w>
7 1</w>
196 0</w>
191 2</w>
web site</w>
vari ations</w>
u el</w>
transi t</w>
t ari
syl v
sk y
ro mans</w>
reta il</w>
renew able</w>
refl ec
referen dum</w>
purch ased</w>
promo te</w>
premi er</w>
phy si
percent age</w>
pen s
pass age</w>
par tly</w>
own ers</w>
op ol
om mun
newspap ers</w>
manufactur ers</w>
lu f
los ing</w>
lin ks</w>
legisl ature</w>
jurisdic tion</w>
j az
in qu
in ch</w>
i ble</w>
h z</w>
g ates</w>
fr ag
fl ying</w>
exclu sive</w>
e asy</w>
call s</w>
bl ock</w>
benef its</w>
b ern</w>
at ol
as sistance</w>
and re
ab str
7 7</w>
7 4</w>
3 9</w>
198 1</w>
197 2</w>
we ak
w u</w>
w ast
viol ence</w>
viet nam</w>
verte br
under ground</w>
tre es</w>
targ ets</w>
stre ss</w>
str eng
ste in</w>
star s</w>
sol id</w>
soci alist</w>
sing er</w>
schem e</w>
s low</w>
rou tes</w>
ro t
reg ard</w>
propos al</w>
plan et</w>
pi ece</w>
pi ano</w>
pho to
pe ac
pass ing</w>
organ ism</w>
organ ic</w>
opport unity</w>
ol a</w>
nor man</w>
no ble</w>
mon ica</w>
mo on</w>
man us
inst alled</w>
im m
hu ge</w>
gar ian</w>
follow s</w>
fi re
exp and</w>
ex cep
es tion</w>
en ess</w>
en e</w>
dic t
descri bes</w>
dau ghter</w>
co ins</w>
car s</w>
bor ough</w>
be an</w>
au gu
atten ded</w>
anal og</w>
adver tis
6 8</w>
5 6</w>
4 7</w>
197 1</w>
196 4</w>
z z
vir gil</w>
vers y</w>
thin k</w>
t b</w>
stor ies</w>
sovere ign
sovereign ty</w>
se v
pow ered</w>
popul ous</w>
poli tici
po t
pestici des</w>
pe t</w>
passeng ers</w>
parliam entary</w>
own er</w>
or ing</w>
no thing</w>
mix ture</w>
mis s
minim um</w>
mil i
met ap
merg ed</w>
mathematic al</w>
manus cri
legi tim
lam p</w>
lam a</w>
l as</w>
ke ts</w>
in don
indon e
i on</w>
he alth
fe el
d ary</w>
contro versy</w>
concentr ation</w>
comp act</w>
commit ted</w>
character istic</w>
char t</w>
chair man</w>
cath ol
car d</w>
av ic
acc used</w>
8 00</w>
6 2</w>
197 5</w>
195 8</w>
11 th</w>
virg in</w>
trans ferred</w>
telec ommun
telecommun ic
situ ated</w>
sax on</w>
responsi bility</w>
refl ected</w>
r um
p y</w>
off ering</w>
liter ally</w>
labor atory</w>
junc tion</w>
ju li
ir anian</w>
initi ated</w>
inde ed</w>
i v</w>
guar an
fu el</w>
fin ished</w>
fil ament</w>
facil ity</w>
ess entially</w>
en emy</w>
e z
dar ies</w>
conventi onal</w>
continu ous</w>
connec tions</w>
confir med</w>
champi ons</w>
bron ze</w>
boun daries</w>
b ought</w>
b ak
autonom ous</w>
am end
a p</w>
8 2</w>
197 3</w>
1 20
z he
y outh</w>
y i
wa vel
w aves</w>
vo ic
var ying</w>
un g</w>
tol er
sub urban</w>
st ro
spon sor
sp oke</w>
sp here</w>
s z
s .</w>
recomm ended</w>
re y</w>
re stored</w>
q ing</w>
portu gal</w>
mi x</w>
mer ch
mean while</w>
loc ations</w>
lo ad</w>
inf antry</w>
in hab
immedi ate</w>
il le</w>
hos pit
ho p</w>
guine a</w>
gu id
g il
es cent</w>
day light</w>
d am</w>
cul min
civil ian</w>
carri ers</w>
capac itors</w>
candi dates</w>
can on</w>
bo y</w>
bo l</w>
attribu ted</w>
arg ue</w>
an ic</w>
ag ree</w>
aff e</w>
ad ults</w>
7 00</w>
2 50</w>
2 1st</w>
196 6</w>
z en</w>
wal ter</w>
w a</w>
ven ess</w>
vehic les</w>
vari ed</w>
v ed
tubercul osis</w>
tec h</w>
strugg le</w>
ste ad
settl ements</w>
sel eu
re ver
re aching</w>
pt ol
psych ology</w>
predat ors</w>
pol ar
po ver
p an</w>
opini on</w>
on y
munici pal</w>
mor al</w>
monarch y</w>
met als</w>
main land</w>
ke y
jour nal</w>
investi gation</w>
instr um
in ian</w>
identi fy</w>
hon or</w>
hin du</w>
han over</w>
h r
frequ encies</w>
fe wer</w>
f ear
ey e</w>
ex pec
es sions</w>
electr on
el and</w>
di ver
deta ils</w>
der ing</w>
credi t</w>
concep ts</w>
ch ann
aspir ated</w>
ar m</w>
appropri ate</w>
air ed</w>
adoles cent</w>
absol ute</w>
196 5</w>
191 8</w>
10 00</w>
wh ites</w>
war saw</w>
v ul
requ est</w>
rebel lion</w>
pron unci
prin cess</w>
pl ate</w>
philipp ines</w>
pe tro
pe l</w>
molec ular</w>
mal ay
la yer</w>
in ing</w>
im posed</w>
im ag
id en
har mon
h ang
frequ ent</w>
fac tory</w>
extinc tion</w>
enco ding</w>
div ine</w>
di ar
di ag
di a</w>
den s</w>
de an</w>
d less</w>
continu ing</w>
connec ting</w>
compl ex
collap se</w>
co st
claim ing</w>
ch lor
call ing</w>
c ann
bal tic</w>
b t</w>
b la
b in</w>
augu st
armen ia</w>
ar ia</w>
ar a</w>
ad mir
8 6</w>
197 7</w>
191 1</w>
wrest ler</w>
w ine</w>
vi enna</w>
v .</w>
tor al</w>
surve y</w>
su it</w>
stor m</w>
standar di
si ded</w>
s ons</w>
prepar ed</w>
possi bility</w>
pharm ac
performan ces</w>
pe as
p ast
ou gh
or ph
or bit</w>
n azi</w>
mon t</w>
line ar</w>
l is
jaz z</w>
jack son</w>
jac ent</w>
j or
inven tion</w>
implem ented</w>
ha w
h ills</w>
go es</w>
fun ds</w>
fr am
foo t</w>
fl our
el se
dre ss</w>
descend ants</w>
dem an
de pos
d é
d in</w>
cub ism</w>
cop y</w>
consist ent</w>
charg ed</w>
cav al
capp ella</w>
auth ors</w>
asp ect</w>
anc ing</w>
an th
ad jacent</w>
ac le</w>
8 ,
7 ,
196 1</w>
1. 5</w>
- year</w>
uk rain
tic ated</w>
thuring ia</w>
th y</w>
techn ological</w>
sylv ania</w>
sust ain
superi or</w>
spec tr
sing les</w>
scul p
re d
re ason
ran king</w>
promo tion</w>
prece d
pre domin
passeng er</w>
mon d</w>
mo re
ma ur
m pe
m ic</w>
le gen
jud ge</w>
j ean</w>
independ ently</w>
in et</w>
go t</w>
g dp</w>
fri end</w>
francis co</w>
expres s</w>
experim ents</w>
europe ans</w>
en ab
else where</w>
ed y</w>
e tr
diplom atic</w>
design s</w>
chann els</w>
cas u
bo y
be at
ati vely</w>
ap ply</w>
anten nas</w>
af l</w>
af gh
9 8</w>
6 0
196 3</w>
we d
v ow
ukrain ian</w>
tw affe</w>
transl ated</w>
techni que</w>
ric o</w>
ric k</w>
remo te</w>
refl ect</w>
re p
prin ting</w>
prin ted</w>
pres ti
pl ains</w>
ph ony</w>
olog ist</w>
ob ser
neighbor hood</w>
nar r
movi es</w>
metr o</w>
institu tes</w>
i k
gr am
fr ed</w>
form ers</w>
fl at</w>
fe ed</w>
f ts</w>
f m</w>
eritre a</w>
en comp
e th</w>
dram atic</w>
distingu ished</w>
diar rhe
di ary</w>
cu is
cor on
contribu tions</w>
con clu
compl ic
cogn itive</w>
clos er</w>
cent res</w>
bre aking</w>
balk ans</w>
b ag
asth ma</w>
ang e</w>
an sw
alp ha
allo ys</w>
allo y</w>
adop tion</w>
ad minist
200 0s</w>
196 2</w>
wit n
vir tually</w>
trans cri
tra its</w>
tr ust</w>
to ols</w>
termin al</w>
tax es</w>
suff ering</w>
st ay</w>
s cor
rol ling</w>
restaur ants</w>
re fin
r ab
pre dec
por tr
part n
oc e
o res</w>
no ise</w>
man ner</w>
luf twaffe</w>
laser disc</w>
invol ves</w>
ili ans</w>
il legal</w>
gro o
gr amm
expl ained</w>
exerc ise</w>
ef ly</w>
dra wn</w>
doll ars</w>
di et</w>
den ied</w>
deli ver
de pression</w>
controversi al</w>
cl o
ch er</w>
caval ry</w>
bri ef</w>
bom bers</w>
bar ri
atom ic</w>
artis tic</w>
armen ian</w>
and a</w>
al ised</w>
aim ed</w>
ad her
ac tor</w>
abol ished</w>
7 9</w>
5 9</w>
2. 5</w>
win ner</w>
w oo
tr end</w>
t rou
t emporary</w>
sym bol</w>
st ands</w>
schedul ed</w>
require ments</w>
recogn ised</w>
recei ves</w>
por ter</w>
p ig
oppon ents</w>
nor folk</w>
n ato</w>
min ing</w>
m ap
ly wood</w>
li ver
l ap
is si
ing er</w>
in ate</w>
iden tical</w>
i us</w>
hun ter</w>
house holds</w>
gh t
fran k</w>
fic i
experim ental</w>
ex plic
eng aged</w>
el ite</w>
eg gs</w>
educ ated</w>
drin king</w>
deb t</w>
cover ing</w>
conserv ation</w>
con son
con dem
casu alties</w>
campaig ns</w>
br u
bo at</w>
bl ack
beli efs</w>
back ground</w>
antarc tic</w>
ad ding</w>
ac re</w>
194 4</w>
10 th</w>
zhe jiang</w>
war fare</w>
vill ages</w>
ver tical</w>
v ess
vess els</w>
u may
twel ve</w>
tur ing</w>
tr ained</w>
tic us</w>
threat ened</w>
so il</w>
roman ce</w>
resid ence</w>
repe ated</w>
religi ons</w>
regar dless</w>
re son
pro ph
poin ted</w>
pi us</w>
penn sylvania</w>
parti ally</w>
oun ded</w>
oppos ite</w>
number ed</w>
ne o</w>
n one</w>
molec ules</w>
mater i
ma hay
m r</w>
le aves</w>
iz es</w>
ir a</w>
inst all
inc and
in ches</w>
in aug
i -
head s</w>
gul f</w>
gra y</w>
ge ographical</w>
franc is</w>
fo x</w>
fl ag
festiv als</w>
engine ers</w>
elev ation</w>
ed itor</w>
ed ge</w>
do ors</w>
dam aged</w>
cre w</w>
conc ern</w>
comm em
co ding</w>
carr ying</w>
c rit
c it
bu si
bacter ia</w>
b eng
att ached</w>
arri val</w>
adv is
a im</w>
9 1</w>
195 2</w>
195 1</w>
volun te
vin yl</w>
tis su
sc out</w>
s ses</w>
s ale</w>
roc ket</w>
represent ing</w>
represent ative</w>
re vers
public ly</w>
pu p
plat form</w>
pl ed</w>
ot le</w>
ob tain</w>
mil it
mahay ana</w>
m on</w>
liber ty</w>
j ones</w>
it z</w>
initi ative</w>
in um</w>
ib bean</w>
hun gary</w>
h il
go ver
gar dens</w>
fam ili
ex trac
em an</w>
cho ose</w>
ch or
car ibbean</w>
c c</w>
bra h
b ay
avic enna</w>
arist otle</w>
archit ects</w>
ar i</w>
ar d
and /
and/ or</w>
ad d</w>
ab ul
a il</w>
9 th</w>
8 1</w>
6 1</w>
5 3</w>
3 ,000</w>
1 ,0
xi ii</w>
week ly</w>
vehic le</w>
tr ying</w>
tiv ation</w>
ti ous</w>
te dly</w>
tas k</w>
tai wan</w>
succ ession</w>
solu tions</w>
sol o</w>
sle ep</w>
si ght</w>
seg ment</w>
saf e</w>
s i</w>
ris on</w>
repu tation</w>
re verse</w>
r ho
purch ase</w>
person nel</w>
p h</w>
ot a</w>
os per
oper ational</w>
ne ur
mo de</w>
min ute</w>
lo dges</w>
leg ally</w>
l ach
ken ne
jer sey</w>
isol ated</w>
ir s</w>
inv ent
hur ric
high way</w>
gu il
govern ing</w>
g i</w>
fun ded</w>
exclu sively</w>
ex ac
el abor
discus sed</w>
cru ci
con vic
compati ble</w>
comm ent
com pens
col or
chap ter</w>
cap tain</w>
cam p</w>
cab inet</w>
c bs</w>
bas e
ann ounc
aci ds</w>
7 2</w>
195 6</w>
195 4</w>
youn ger</w>
w o
w .</w>
ur y</w>
t ul
t te</w>
t t</w>
sp r
se l</w>
roman tic</w>
ri d</w>
rh ine</w>
respon ded</w>
respec tive</w>
rele v
regul ation</w>
pion e
particip ated</w>
n in
min es</w>
meas ure
li fe
lear ned</w>
j an</w>
infring ement</w>
in duc
im possible</w>
hol ders</w>
glaci er</w>
g b</w>
fi x
f aster</w>
ew ay</w>
ev ening</w>
er ror</w>
enjo yed</w>
du ch
dise ases</w>
depen ds</w>
decre ased</w>
d ged</w>
contest ants</w>
consi sted</w>
con secu
cerem on
br un
bir th
bi ble</w>
batt les</w>
b ited</w>
ass ass
ar is</w>
americ as</w>
al a</w>
9 6</w>
5 8</w>
war m</w>
wa ke</w>
w ant</w>
v ati
vati can</w>
under stood</w>
tre ss</w>
tor ate</w>
t led</w>
sign s</w>
si as
shi pping</w>
schol ar</w>
regi stered</w>
publ ishing</w>
pro test</w>
pris es</w>
pon ti
pit ch</w>
pan ts</w>
opport unities</w>
om er
mon ast
missi le</w>
mis sion
mar ath
ma il</w>
m ese</w>
m er</w>
k han</w>
inter medi
incand escent</w>
h its</w>
ge om
g on
figh ter</w>
fem ales</w>
ever ton</w>
eng ine</w>
enforc ement</w>
el even</w>
ear ned</w>
du b
distinc tive</w>
cust oms</w>
cros sed</w>
cro ps</w>
consecu tive</w>
connec tic
con go</w>
ci v
ch ec
cer tain
candi date</w>
bur mese</w>
bil ities</w>
bi ology</w>
beli ev
base ball</w>
at us</w>
as sic</w>
ann i
an istan</w>
ag ues</w>
ag on</w>
afgh anistan</w>
acc um
ac res</w>
ac knowle
195 3</w>
194 7</w>
, [
w ay
v an
uni fied</w>
tru th</w>
tre at</w>
tre as
tran sist
tit led</w>
thin king</w>
test s</w>
swe den</w>
survi ved</w>
sup plies</w>
stric t</w>
sk ills</w>
simultan eously</w>
shar es</w>
s er</w>
s end</w>
s car
ri sts</w>
restric tions</w>
re place</w>
ra ft</w>
ps 3</w>
progr am
pro to</w>
pap al</w>
mus e
mon ks</w>
mon go
modi fied</w>
millen ni
manufac tured</w>
mag n
log ic</w>
licen sed</w>
lear n</w>
land s
l anc
jud g
inv ited</w>
in ary</w>
ill um
hor iz
habit at</w>
h .</w>
gr ass</w>
func tional</w>
facil it
ev a</w>
eth i
equ ality</w>
el i
diffic ulty</w>
di gi
def end</w>
coun ties</w>
connectic ut</w>
con vers
co des</w>
cle arly</w>
chro mos
chem i
cap ita</w>
c ad
bom bs</w>
bom b</w>
as signed</w>
ari ties</w>
arg ent
ac compl
absor bed</w>
: 00</w>
5 2</w>
4 ,000</w>
193 6</w>
writ ings</w>
wor st</w>
wor ms</w>
wh el
uni form</w>
under graduate</w>
u l</w>
transmit ter</w>
transl ation</w>
the ology</w>
ter med</w>
teach ings</w>
te es</w>
t ar</w>
sul tan</w>
statis tical</w>
spirit ual</w>
slow ly</w>
simpli fied</w>
ri d
reli ef</w>
ran ks</w>
protoc ol</w>
pronunci ation</w>
program me</w>
pro claimed</w>
pover ty</w>
plan e</w>
philosoph ers</w>
par ent</w>
pal er
o on</w>
nutri tion</w>
negoti ations</w>
n ine
mu tual</w>
millenni um</w>
mar k
lu x
is o</w>
insec t</w>
ide alism</w>
hun ting</w>
frank lin</w>
fe el</w>
fac ulty</w>
f ly</w>
emer gency</w>
em entary</w>
em bar
electron ics</w>
distribu ted</w>
discus sion</w>
de aths</w>
cri tic
cons ist</w>
con fer
commem or
chemi stry</w>
charg es</w>
chap el</w>
c k</w>
bl o
at oms</w>
ast ro
arist oc
ap ost
annex ed</w>
alexand ria</w>
administ ered</w>
adap ted</w>
a .</w>
9 7</w>
8 7</w>
195 5</w>
19 20</w>
x i</w>
wealth y</w>
w y
vi br
uk raine</w>
ti s</w>
territ orial</w>
su res</w>
stim ul
spectr um</w>
sp ending</w>
sol ve</w>
seg ments</w>
ro s
ro ll</w>
re sc
re move</w>
produc tions</w>
prison ers</w>
por tions</w>
ow ing</w>
ori ented</w>
op tical</w>
neighbor ing</w>
ne olithic</w>
nation alist</w>
muse ums</w>
mor ning</w>
mongo l</w>
mechan ics</w>
ma x</w>
m ou
k ö
is sions</w>
ir ts</w>
inn oc
indic ated</w>
in land</w>
hi er
ha ir</w>
h oo
g at
franc o</w>
fram e
fil l</w>
fav our</w>
exten d</w>
ev acu
enc ycl
en e
em igr
eigh th</w>
e ag
doc ument</w>
div or
discipl ine</w>
correspon ding</w>
commis sion
coll ected</w>
co al</w>
chron ic
can cer</w>
busi est</w>
band width</w>
b ases</w>
archit ect</w>
ar iz
al u
ak a</w>
affili ated</w>
8 4</w>
6 7</w>
6 ,000</w>
5 0,000</w>
194 6</w>
193 8</w>
12 0</w>
vo ters</w>
us h</w>
under lying</w>
un less</w>
umay y
til ity</w>
ti veness</w>
ti les</w>
theore tical</w>
teach er</w>
su d
slav s</w>
sing ing</w>
sec ure</w>
scen es</w>
sa ve</w>
s sing</w>
ro tor</w>
revi val</w>
r &
provin cial</w>
pron ounced</w>
produc tive</w>
pro pag
polytechn ic</w>
per spective</w>
paler mo</w>
p ts</w>
over whel
ottom ans</w>
occurr ing</w>
nic hol
neutr al</w>
mu gh
mess age</w>
li v
le ban
l é
i tions</w>
gri d</w>
govern ance</w>
g ang
fre sh</w>
fin ding</w>
fi ber</w>
ey es</w>
expl ain</w>
de but</w>
cur ricul
corpor ate</w>
const ant
conn ect</w>
conf id
condi tion</w>
commer ci
civ ilians</w>
chem icals</w>
bur ied</w>
be d
at ticus</w>
ass a
arg ues</w>
arab s</w>
ani el</w>
alter n
accur ate</w>
abul ary</w>
195 9</w>
192 2</w>
19 00</w>
z er</w>
wi i</w>
ul ties</w>
tow ers</w>
ti ed</w>
th an
statis tics</w>
sovi ets</w>
sist ant</w>
sev enth</w>
se arch</w>
s oun
s aving</w>
re m
pu r</w>
pap ers</w>
neighbour ing</w>
nar row</w>
n ag
mom ent</w>
min e</w>
main taining</w>
m outh</w>
loo king</w>
jo b</w>
inter state</w>
ino ple</w>
implem entation</w>
il ian</w>
har bor</w>
go ds</w>
ge ographic</w>
fe ar</w>
fac tories</w>
f ed</w>
f ame</w>
ex posed</w>
ethi op
ent ering</w>
el e
dra w</w>
deplo yed</w>
constant inople</w>
citi zen
circum stances</w>
ch en</w>
cel er
capac itor</w>
bur gh</w>
bow l</w>
be sides</w>
atmos phere</w>
at eral</w>
arti ficial</w>
ar bit
ap p
ad ju
accep table</w>
ac celer
6 9</w>
5 1</w>
19 10</w>
- inch</w>
y ang
we ak</w>
war ri
w al</w>
vill a</w>
valenci an</w>
v ement</w>
ter ies</w>
ten sions</w>
t une</w>
su me</w>
strong er</w>
shor e</w>
shar ing</w>
sh er
separ ation</w>
se e
sc and
s y</w>
ro b
re ti
re formed</w>
r na</w>
r ated</w>
publ ish
psych ological</w>
pro mp
pharmac eu
own ership</w>
olymp ics</w>
ob ama</w>
no tion</w>
m ys
m oc
lingu istic</w>
le ys</w>
k ins</w>
join ing</w>
j r</w>
inhab ited</w>
indone sia</w>
in put</w>
in i</w>
il li
i v
i g</w>
hy dr
hun garian</w>
hor se</w>
he ating</w>
freem ason
freemason ry</w>
fl ed</w>
fin ite</w>
fin ance</w>
f it</w>
exten sion</w>
et es</w>
em en</w>
ed a</w>
ec cle
e at</w>
distingu ish</w>
dis played</w>
diff er</w>
desi re</w>
conflic ts</w>
compos ers</w>
col ors</w>
co m</w>
cap it
c ited</w>
c al</w>
bu t
ath ens</w>
arre sted</w>
ariz ona</w>
appe al</w>
ang le</w>
al istic</w>
ak es</w>
adv ent
ad ic
a .
9 00</w>
8 9</w>
00 –
wor ship</w>
wor n</w>
w is
w an
tr ains</w>
tou rists</w>
there after</w>
sz lach
sub stance</w>
su gar</w>
struc tural</w>
some one</w>
sent ence</w>
se em</w>
s and</w>
ru g
replac ement</w>
refu ge
ran k</w>
ra f</w>
qu i
q a
promis ed</w>
popul ated</w>
poll ution</w>
pl aza</w>
phr ase</w>
per mitted</w>
partn ership</w>
pain tings</w>
p en</w>
on going</w>
olog ically</w>
ob jec
no bel</w>
municip alities</w>
milli ons</w>
metap hy
metaphy s
mal i</w>
k g</w>
k arm
isi tion</w>
in tr
hel ic
he ights</w>
gra in</w>
franch ise</w>
frame work</w>
form ats</w>
fore sts</w>
fil ed</w>
farm ers</w>
f ra
f alls</w>
er ian</w>
el ed</w>
ed ic
diarrhe a</w>
deli ber
dal ai</w>
cuis ine</w>
cri mes</w>
consequ ence</w>
compe ting</w>
cl ari
ch er
ch e</w>
bloc ks</w>
bil ls</w>
ber n
bel t</w>
bar o
archi ves</w>
ad or</w>
ad am</w>
9 0
195 7</w>
193 1</w>
191 7</w>
10 .
w all
vir tu
vari ants</w>
urugu ay</w>
uni ons</w>
transmit ters</w>
szlach ta</w>
surroun ded</w>
stop ped</w>
speci fied</w>
si oned</w>
show ing</w>
se ek</w>
s oph
s ely</w>
s burg</w>
s .[citation</w>
revol t</w>
re serves</w>
re public
ra ids</w>
pro of</w>
privil eg
popul ar
pl ant
particip ate</w>
offen sive</w>
n ur
mon t
med al</w>
marke ting</w>
man if
mad r
liter acy</w>
k pa</w>
it ations</w>
invol vement</w>
intro duc
inter actions</w>
integr ation</w>
indic ates</w>
impe dance</w>
imm une</w>
hospit als</w>
he g
h oc
g one</w>
g -
foo ds</w>
fir m</w>
fav or
f is
ex ile</w>
ex act</w>
es p
domin ican</w>
dis co</w>
di electric</w>
defin itions</w>
dec isi
cypri ot</w>
competi tive</w>
compe te</w>
ci i</w>
cap ital
c em
broad way</w>
bro ok
bo hem
ban k
b le
b ath</w>
as sets</w>
any thing</w>
ang ered</w>
an atol
agre ements</w>
ac ous
193 0</w>
12 .
wrest lers</w>
wild life</w>
war ner</w>
view ers</w>
um n</w>
trans formed</w>
tr um
tit udes</w>
t one</w>
sym me
survi ve</w>
ste ps</w>
speci alized</w>
sh u
sec ution</w>
schol ar
sal t</w>
s s
relev ant</w>
real m</w>
re serv
re n</w>
re cep
philosop her</w>
phenomen on</w>
par ade</w>
pain ting</w>
ow ed</w>
more over</w>
me ters</w>
k at
it ly</w>
in n</w>
im mun
ill a</w>
ho k
hap pen
h as
gen res</w>
f l</w>
f at</w>
experim ent</w>
expedi tion</w>
ex tra</w>
every thing</w>
est ate</w>
er als</w>
el a</w>
e au</w>
du al</w>
dr ama</w>
descri ption</w>
decre ase</w>
dec k</w>
d b
consequ ently</w>
con federation</w>
com ic</w>
ch ose</w>
cent ered</w>
c iting</w>
belgi um</w>
b ound</w>
aut umn</w>
atten d</w>
athle tic</w>
am ing</w>
ag ents</w>
adv ice</w>
ad equ
acc es
ac cid
a us
a head</w>
2. 0</w>
17 0
.[ note</w>
zer o</w>
yl or</w>
x xiii</w>
with drew</w>
w ings</w>
voc abulary</w>
vis iting</w>
vers ary</w>
v ac
um -
tour nam
the or
sub continent</w>
su itable</w>
stri ke</w>
stre t
str ing</w>
st am
sal v
resid ent</w>
republ ics</w>
rebel s</w>
re ci
rad ar</w>
prev ented</w>
predomin antly</w>
ox ford</w>
on ds</w>
ob jective</w>
ni k
navi gation</w>
n as
mpe g-
loc k</w>
liver pool</w>
libr aries</w>
l yn
kill ing</w>
kar yo
it o</w>
inter nationally</w>
inten se</w>
indi rec
improv ements</w>
i ons</w>
hol lywood</w>
her o</w>
han g</w>
guit ar</w>
gener ations</w>
g ay</w>
fl ex
fall ing</w>
f .</w>
elec toral</w>
ed it
dv d</w>
dis ney</w>
deta iled</w>
coun c
concer ning</w>
comp ound</w>
com prising</w>
co w</w>
co operation</w>
c oo
bre eding</w>
bor ne</w>
bloc k
be ar</w>
be ach</w>
b ass</w>
b ass
b asi
b ad</w>
arg o</w>
appoin tment</w>
and ers</w>
ancest ors</w>
al g
ag ent</w>
accep tance</w>
a i
a es
8 3</w>
5 4</w>
191 3</w>
wast e</w>
vertebr ates</w>
to t
terror ism</w>
tap e</w>
ta ylor</w>
survi ving</w>
st ops</w>
sing ap
shif ted</w>
shap ed</w>
ri dge</w>
princi p
pre valent</w>
pat ents</w>
os yn
on ym
occa sions</w>
new er</w>
n y
mor t
mis sed</w>
min orities</w>
mad rid</w>
ma p</w>
log ical</w>
liber ation</w>
k o</w>
ir an</w>
interven tion</w>
ing ham</w>
im p
hus band</w>
hoc key</w>
helic op
hear ing</w>
h ud
gre g
glaci ers</w>
galic ian</w>
g la
friend ly</w>
fel low</w>
ess ors</w>
er o</w>
enti tled</w>
em it
dri ves</w>
dispu ted</w>
dis on</w>
depu ty</w>
d ul
cr ude</w>
con ception</w>
co ff
citizen ship</w>
cham ber</w>
ch ance</w>
ce o</w>
cam p
boun dary</w>
bot tom</w>
baro que</w>
bar s</w>
avail ability</w>
author ized</w>
andre w</w>
al fred</w>
abstr act</w>
a f</w>
7 ,000</w>
190 7</w>
wal k</w>
vide o
vi i</w>
tu be</w>
transmit ted</w>
spe eds</w>
sou theastern</w>
sol e</w>
sic ily</w>
ser i
sensi tive</w>
scre en</w>
scho ol
samo a</w>
s u</w>
rug by</w>
ri g
read ers</w>
re tain</w>
re stor
pri est</w>
pre served</w>
pr ad
per mit</w>
pat ron
partici pants</w>
palest ine</w>
n h
lo t</w>
li sts</w>
li p
le g</w>
ic on
ic om</w>
i di
i ber
how ard</w>
he v</w>
gos pel</w>
georgi a</w>
fin als</w>
feder alism</w>
fair ly</w>
fac ing</w>
fa ult</w>
f ast
enab led</w>
du ty</w>
dom ini
dest roy</w>
depart ments</w>
denom inations</w>
def ine</w>
cros sing</w>
cro p</w>
cou ple</w>
conven i
conv inc
con fron
competi tions</w>
collec tions</w>
co in
champion ships</w>
broadcast s</w>
bl an
b ang
atmos pher
as cii</w>
am bi
ag ement</w>
9 4</w>
193 7</w>
193 4</w>
v in</w>
v acc
ultim ate</w>
u g
th in</w>
telecommunic ations</w>
syn thetic</w>
syn the
symb ols</w>
sym phony</w>
swit ch</w>
susp ended</w>
sum ed</w>
subsi diary</w>
sub scri
sponsor ed</w>
shor t
sh ad
ser bian</w>
se phar
sax ony</w>
sam uel</w>
revol u
retur ning</w>
resc ue</w>
re z</w>
re t
ra w</w>
pup ils</w>
progres sive</w>
pro to
poten tially</w>
pi er
person ality</w>
pati ents</w>
p es</w>
organis ations</w>
or m
op tion</w>
oc h</w>
nati ves</w>
n az
moun ted</w>
mel o
m w</w>
m ir</w>
lin col
l ex
l b</w>
l '
k in</w>
jus ti
ju an</w>
j um
it arian</w>
hy bri
hum id</w>
hor n</w>
hit ler</w>
her e
fig ur
fac to</w>
f -
expan ding</w>
encour age</w>
en z
e c</w>
dang erous</w>
cryst al</w>
corresp ond
coron ation</w>
contro ls</w>
compos er</w>
colle gi
cl an</w>
civil ization</w>
bri an</w>
bo x
beau ti
bat tery</w>
bann ed</w>
arg ument</w>
arbit r
anni versary</w>
ann e</w>
ang i
an us</w>
amend ment</w>
adv ances</w>
ab u</w>
a z</w>
9 3</w>
5 7</w>
200 ,000</w>
187 1</w>
x y</w>
vic tim
ve ter
val leys</w>
tur ks</w>
tr adem
tradem ar
te x</w>
tan g</w>
sym bol
su dan</w>
str ation</w>
st ere
speak er</w>
snow fall</w>
singap ore</w>
signific ance</w>
sens ory</w>
remain der</w>
reli able</w>
refer ring</w>
re plic
re formation</w>
politici ans</w>
pol es</w>
pe aks</w>
particip ation</w>
or a</w>
on wards</w>
observ ation</w>
no bles</w>
ni ghts</w>
nation alism</w>
mili tia</w>
mat h</w>
m tv</w>
lit urg
life time</w>
kenne dy</w>
j e</w>
ish ments</w>
ir o</w>
instrum ental</w>
horiz on
hom osexual</w>
hear d</w>
gro ss</w>
gran ting</w>
gall ery</w>
fin dings</w>
fe ud
f ish
elim inated</w>
dur ation</w>
dimen sions</w>
dh ood</w>
d .c</w>
curr ency</w>
chil dhood</w>
cap ability</w>
bu y</w>
bou lev
boo m</w>
bo tan
bl u
be ings</w>
bac ked</w>
b ell
avi ation</w>
au to
arrang ement</w>
apar te</w>
an tici
al titude</w>
air lines</w>
accoun ted</w>
a w</w>
a ud
3 0,000</w>
191 9</w>
00 -
/ ˈ
wind sor</w>
win ds</w>
willi ams</w>
vol ta
vit am
un known</w>
u li
tou ch</w>
tin y</w>
them es</w>
ten ds</w>
ste ve</w>
st an</w>
sol ely</w>
seleu ci
se emed</w>
se ed</w>
s wi
ru b
ro d
refuge es</w>
re bel</w>
raj as
rajas than</w>
rail road</w>
promis e</w>
presid ency</w>
prad esh</w>
pr ised</w>
pr en
po sts</w>
play back</w>
pan el</w>
ow l</w>
o v</w>
no tic
nine teenth</w>
nickn ame</w>
nichol as</w>
nam ely</w>
mon opol
manufac ture</w>
m ented</w>
m atic</w>
lad y</w>
kar l</w>
k ur
k u</w>
k el</w>
ji ang
j im</w>
j en
invol ve</w>
inter face</w>
inten sity</w>
in ter</w>
id ing</w>
hop e</w>
h ad
fri ed
fin land</w>
farm ing</w>
f ies</w>
f an</w>
excep tions</w>
enti ty</w>
ef ul
ec raft</w>
e per</w>
dynam ic</w>
dub bed</w>
dra wing</w>
dis k</w>
dis aster</w>
di stor
desi red</w>
del ayed</w>
d un
d aniel</w>
counter ed</w>
cor n
conver t</w>
concer ts</w>
compu ting</w>
commis sioned</w>
comm u
com edy</w>
collap sed</w>
coll ectively</w>
clos ing</w>
cl ergy</w>
ch al
ce ded</w>
ce ased</w>
cathol ics</w>
c oc
bio diversity</w>
b id
attrac tion</w>
ar et</w>
ap pl
antici p
adop t</w>
acces sible</w>
7 0
20 ,000</w>
194 3</w>
192 9</w>
y ah</w>
wh il
whil st</w>
ve dic</w>
uni fication</w>
tur ner</w>
tur n
ti ans</w>
ten ance</w>
system atic</w>
sup posed</w>
struc k</w>
stri p</w>
st atic</w>
spec tre</w>
sh ops</w>
sec tors</w>
se es</w>
s ap
ro ger</w>
rele ases</w>
rel ess</w>
re vel
re porting</w>
re ally</w>
ra id</w>
r& b</w>
r y
qu alities</w>
protest ers</w>
promo ting</w>
pris on</w>
pri ests</w>
ple as
pl u
physi ological</w>
phenom ena</w>
ph ate</w>
ous ness</w>
organ ised</w>
o te</w>
mos cow</w>
moc king
miss issi
mississi pp
migr ants</w>
ma k
lincol n</w>
la y
la kes</w>
l em
ke e</w>
is en
inher ited</w>
in ser
ig ned</w>
groo ve</w>
fir m
f ab
exten ding</w>
explan ation</w>
ex cell
es y</w>
es cape</w>
equ ally</w>
en thu
emerg ence</w>
communic ate</w>
clos ure</w>
cle an</w>
cle an
car tri
bul b</w>
bre vi
be ar
at tered</w>
as tics</w>
ann el
ancest or</w>
adv ent</w>
ac tiv
190 9</w>
185 4</w>
ñ a</w>
withdra wal</w>
wil ling</w>
victim s</w>
ven ues</w>
tri be</w>
tour ist</w>
th i
ten ded</w>
tempor al</w>
sun light</w>
stud ying</w>
sp ot</w>
sign ing</w>
shor ter</w>
reven ues</w>
recogn ize</w>
recei ver</w>
re views</w>
re actions</w>
re aches</w>
ra y
r ons</w>
pu rely</w>
prov isions</w>
produc ers</w>
pra yer</w>
phi c</w>
pen etr
pass es</w>
oun s</w>
ough s</w>
ori th
or th
neur ons</w>
mur der</w>
main tains</w>
maced onian</w>
m am
loc ally</w>
lo ading</w>
liqu id</w>
li gi
la h</w>
ki en</w>
id ity</w>
harv ard</w>
gor bac
gorbac hev</w>
gather ed</w>
fre sh
for bes</w>
figh ters</w>
fam icom</w>
expen se</w>
epis ode</w>
entr ance</w>
enti ties</w>
end angered</w>
el e</w>
edi tions</w>
ec os
dra ft</w>
do w</w>
dispu te</w>
diffic ulties</w>
desi r
defin ing</w>
dec o
de al
commit ment</w>
circu its</w>
car l</w>
bur ma</w>
bo ards</w>
bel ong</w>
beauti ful</w>
at i</w>
ass ing</w>
as simil
arg uments</w>
arab ia</w>
alg orith
acknowle dged</w>
achiev ement</w>
ac tors</w>
ab s
ab ra
ab brevi
194 0s</w>
19 25</w>
16 0
ur ban
tw ili
twili ght</w>
ter ing</w>
teach ers</w>
t ant</w>
sub stitu
stor ms</w>
sid ers</w>
si zes</w>
si lic
sequ ences</w>
see king</w>
scot t</w>
scienti st</w>
sahar a</w>
ro s</w>
ri ba</w>
rec ru
re construction</w>
r in
r ating</w>
ques tioned</w>
qa eda</w>
push ed</w>
public ations</w>
poss ession</w>
plat inum</w>
pl astic</w>
perf ect</w>
parti cles</w>
p ā
p in</w>
os aur
org ans</w>
ob vi
o ak</w>
mar ia</w>
manu el</w>
main tenance</w>
mac ro
lithu anian</w>
lik ew
likew ise</w>
less er</w>
l ing
kin ds</w>
k am
innov ation</w>
inaug ur
in fer
ignor ed</w>
i th
i .</w>
hud son</w>
hi mach
headquar tered</w>
hd tv</w>
h es</w>
gu ide</w>
gradu ates</w>
g et
g au
fron tier</w>
fossi l</w>
form ula</w>
fir ed</w>
empir ical</w>
el se</w>
eff ec
easi er</w>
du ties</w>
dis solved</w>
desc ended</w>
depos its</w>
de ep
d av
curricul um</w>
char ts</w>
char ity</w>
bor oughs</w>
bon aparte</w>
bo tt
bl ical</w>
bi blical</w>
be at</w>
bas in</w>
b c
b av
avo ided</w>
astronom y</w>
ari ans</w>
an atom
am phi
al ber
accoun ting</w>
abs ence</w>
187 6</w>
ā na</w>
z ones</w>
yugosla v</w>
y ang</w>
wil son</w>
wavel ength</w>
vent ure</w>
vari able</w>
v inc
tri bal</w>
trac ed</w>
tr as</w>
tin i</w>
thir teen</w>
the w</w>
test ed</w>
t z</w>
sup ports</w>
sul tan
star ts</w>
spac ecraft</w>
soph is
she et</w>
selec t</w>
se as
requ iring</w>
re signed</w>
re si
r ational</w>
r and
q i</w>
proce dur
pres cri
pos e</w>
phon em
ph ones</w>
par tis
pal e
oni o</w>
missi les</w>
mil d</w>
mechan isms</w>
loc ke</w>
lithu ania</w>
liby an</w>
lati t
instruc tion</w>
in spir
himach al</w>
hier arch
hand le</w>
h ill
grap h</w>
gir l</w>
g m</w>
fun eral</w>
for tune</w>
for th</w>
follow ers</w>
fe ed
fac tion</w>
fa thers</w>
ex port</w>
every one</w>
every day</w>
eu r</w>
eng age</w>
e ted</w>
demonstr ations</w>
democr ats</w>
dem ographic</w>
dem ands</w>
declin ing</w>
de ac
cypri ots</w>
crit eria</w>
continu ously</w>
consequ ences</w>
commerci ally</w>
cl ocks</w>
circul ation</w>
cir ca
celebr ation</w>
can cel
bur n</w>
bud d
brig ade</w>
bic y
beng al</w>
appro aches</w>
ap pal
ang l
alum ni</w>
alpha bet</w>
al ize</w>
ad mitted</w>
ab road</w>
2 2
1, 4
y in</w>
vo y
urani um-
ul l</w>
u prising</w>
thir ty</w>
surren der</w>
su spec
st om
st ability</w>
spac es</w>
rol led</w>
ri val
ri f
respon ses</w>
replac ing</w>
ren owned</w>
regi ster</w>
re sur
re covery</w>
rat ings</w>
proper ly</w>
pre serve</w>
pre fer
pra ised</w>
pol l</w>
pl ing</w>
pl ates</w>
part ners</w>
p ages</w>
on ist</w>
on a
nin th</w>
mocking bird</w>
magaz ines</w>
mad aris</w>
loo p</w>
j ay</w>
inf ec
indi ans</w>
im pres
i o</w>
hok kien</w>
heter osexual</w>
ha i</w>
h di</w>
glo be</w>
gener ate</w>
found ations</w>
famili ar</w>
f ishing</w>
ex ports</w>
ev el
end or
emp ires</w>
eccle sias
di oc
desir able</w>
de ter
de par
d t</w>
cros s
cont est</w>
consum ers</w>
con fes
circa dian</w>
ci an</w>
bul bs</w>
bri efly</w>
attribu tes</w>
atten ding</w>
atmospher ic</w>
ass ess
arc tic</w>
appal achi
angi osper
al e
adequ ate</w>
a is</w>
4 0,000</w>
withdra w</w>
win ners</w>
win dow</w>
wh at
w ell
val ence</w>
v es
v as
us s</w>
tw enti
twenti eth</w>
tur ning</w>
transpor ted</w>
thir ds</w>
the ological</w>
ten ed</w>
t ang
sustain able</w>
summ ers</w>
su m</w>
streng th
soun d
sist ence</w>
seas onal</w>
s tic
s ession</w>
remo val</w>
rati on
r us</w>
pre gn
pl as
ph y</w>
petro le
petrole um</w>
per mission</w>
par am
op er</w>
o tic</w>
non profit</w>
non eth
noneth eless</w>
natur ally</w>
napole onic</w>
n os
n ings</w>
moder ate</w>
meas ur
mari time</w>
m ates</w>
ly n</w>
lo qu
lin ed</w>
licen sing</w>
le on
lan ded</w>
l ose</w>
j eff
interpre ted</w>
indu s</w>
inc enti
in y</w>
illu str
ide als</w>
hurric ane</w>
hol der</w>
gu ards</w>
gr ants</w>
gover nor
gam ing</w>
gal il
g ur
g el
fru it</w>
flow ering</w>
fem in
fal se</w>
extinc t</w>
exhi bit</w>
ep ic</w>
encycl op
en orm
em ies</w>
elev ated</w>
electr ons</w>
electr on</w>
elabor ate</w>
effec tiveness</w>
e ating</w>
don ated</w>
di um</w>
dest ination</w>
demonstr ation</w>
dem ol
de emed</w>
d it
cruci fi
construc t</w>
connec tor</w>
conn ects</w>
complex ity</w>
comple tion</w>
christ op
christ mas</w>
cap abilities</w>
cam bridge</w>
c ric
bri ght</w>
bre eds</w>
at edly</w>
arti cles</w>
arrang ed</w>
appear ing</w>
any one</w>
ann a</w>
acqu isition</w>
acous tic</w>
193 2</w>
190 8</w>
vi ii</w>
travel ed</w>
transist or</w>
tion aries</w>
ten sion</w>
t ony</w>
sub ordin
ste ph
st en</w>
sil k</w>
shif ts</w>
sh op</w>
se ized</w>
sculp ture</w>
satell ites</w>
ro ot</w>
rec all</w>
re source</w>
re covered</w>
qu ad
pur ple</w>
pro pri
predat or</w>
pre d
polar ization</w>
pion eer</w>
phon ology</w>
per formers</w>
part ner</w>
palest inian</w>
p ers</w>
org an</w>
op tim
o des</w>
num er
new found
newfound land</w>
narr ative</w>
mugh al</w>
mon tini</w>
min erals</w>
migr ated</w>
merch ants</w>
me et
meet ings</w>
manuscri pts</w>
man dat
mandat ory</w>
m p</w>
lim itations</w>
legitim ate</w>
leg acy</w>
inv asi
invasi ons</w>
instruc tions</w>
her esy</w>
hand led</w>
gram mar</w>
fr ames</w>
fe e</w>
fav our
explic itly</w>
emper ors</w>
emerg ing</w>
eg o</w>
e v</w>
e a</w>
discus s</w>
dis ru
des k
den mark</w>
deliver ed</w>
de ad
corpor ations</w>
consider ing</w>
consider ably</w>
comm ons</w>
collegi ate</w>
coll ective</w>
col ored</w>
ci vic</w>
champi on</w>
challeng ed</w>
carri es</w>
bu tt
bab yl
b one</w>
ax is</w>
at or
as so</w>
appar ently</w>
ant onio</w>
anatol ia</w>
al ban
air e</w>
a ine</w>
é s</w>
y ards</w>
x ii</w>
wol f</w>
wi reless</w>
val u
um a</w>
tun nel</w>
tul sa</w>
tu rer</w>
tribu te</w>
tr ap
tor que</w>
th al
th ail
thail and</w>
tall est</w>
syn chron
survi val</w>
sup plied</w>
st e</w>
st ayed</w>
squ ad
specific ation</w>
sp ur
sh all</w>
se gre
se eing</w>
schedul e</w>
sac red</w>
ro os
roos evel
repe atedly</w>
regul ated</w>
promp ted</w>
poli tically</w>
phot osyn
person ally</w>
per sia</w>
pe ers</w>
pc s</w>
p oul
poul try</w>
or ly</w>
or ange</w>
ograp h</w>
nor theastern</w>
nor man
nom inated</w>
nig erian</w>
nic ity</w>
n iz
n g</w>
municip ality</w>
monast eries</w>
mon etary</w>
mo ves</w>
mississipp i</w>
mic ro</w>
mat ure</w>
las er</w>
la yers</w>
la sting</w>
k ir
jour ney</w>
is ot
is ian</w>
inter ested</w>
inten tion</w>
intel ligi
integr al</w>
in d
hypo thesis</w>
hy per
hon our</w>
hi es</w>
her ed
hel ping</w>
h d</w>
friend ship</w>
forc ing</w>
flow ers</w>
flour ished</w>
fi bers</w>
expl oration</w>
exp elled</w>
ev alu
eth nicity</w>
et te</w>
estim ate</w>
equip ped</w>
end ers</w>
en s
ef a</w>
dram atically</w>
docum ented</w>
deman ded</w>
decisi ve</w>
de voted</w>
custom er</w>
cru cial</w>
crow d</w>
cre ative</w>
cost um
contribu tion</w>
consolid ated</w>
con sent</w>
con fusion</w>
col loqu
clos est</w>
cl am
cer ti
boo k
bom ber</w>
b on</w>
awar eness</w>
associ ations</w>
assa ult</w>
arch bishop</w>
anti qu
ann ing</w>
am er</w>
ag a</w>
afric ans</w>
advoc ated</w>
ac les</w>
absor ption</w>
8 ,000</w>
194 2</w>
187 0</w>
ü r
y ard</w>
war a</w>
vul ner
vir tual</w>
vic tor</w>
ve y</w>
ur a</w>
un successful</w>
ud i</w>
tur ally</w>
tr ace</w>
tom b</w>
th ri
th ick</w>
tempor arily</w>
t ool</w>
succ essive</w>
stat ements</w>
st ad
st a</w>
sim pl
shoo t</w>
shi p
sh ut</w>
sh ock</w>
se in</w>
se al</w>
sc rap
sc ent</w>
s ement</w>
roosevel t</w>
ric s</w>
ri ver
regul atory</w>
r ical</w>
r ams</w>
qu oted</w>
pum p</w>
prov ision</w>
pro spec
pro por
pri ority</w>
presti ge</w>
port able</w>
per secution</w>
pat rick</w>
pas sive</w>
p .</w>
og y</w>
occa sion</w>
new ton</w>
n is</w>
n bc</w>
n ap
mus cles</w>
mon g
materi alism</w>
marsh al</w>
marke ted</w>
mar king</w>
m g</w>
lum in
leg s</w>
le w
lands cape</w>
l ag
kn ights</w>
juli an</w>
jor dan</w>
j ack</w>
it ative</w>
inter view</w>
in spec
hon or
he in
har ry</w>
ha wa
grou ped</w>
ga p</w>
g ood
fur t</w>
fif a</w>
exclud ing</w>
ev ap
est e
ent ally</w>
en countered</w>
en acted</w>
dis plays</w>
direc tions</w>
diam eter</w>
de ple
dang er</w>
d al</w>
contr ast
contr adic
consci ousness</w>
confid ence</w>
con sen
collabor ation</w>
col our</w>
cinem a</w>
c and
brook lyn</w>
bor row
ben jam
bar ons</w>
b en</w>
assum ption</w>
associ ate</w>
asser ted</w>
ash es</w>
ash ed</w>
ar rest</w>
anth ony</w>
alter ed</w>
ac ular</w>
193 3</w>
192 3</w>
18 0</w>
á rez</w>
z el
xi on</w>
win ters</w>
wh ol
weap on</w>
wat ers</w>
voic ed</w>
up grad
u efa</w>
tr aders</w>
tissu e</w>
ti us</w>
ter re
tel s</w>
te en
t ag
sym pt
standardi zed</w>
st on
slo v
scrip ts</w>
sco res</w>
s pl
roman ia</w>
rit ual</w>
ri vals</w>
renew ed</w>
ra ise</w>
r ence</w>
r ca</w>
ptol emy</w>
prussi ans</w>
profes sion
prof its</w>
po orly</w>
pin yin</w>
peac eful</w>
op es</w>
ne oc
mo bil
mil l</w>
mat thew</w>
manufac turer</w>
mad ison</w>
mac y</w>
m ere</w>
lun ar</w>
liber als</w>
lat ino</w>
lab els</w>
kilomet ers</w>
j o</w>
indi es</w>
implic ations</w>
ic on</w>
hor ses</w>
ham p
h ec
gymn astics</w>
guid ance</w>
gre gor
gi ant</w>
for tun
flu id</w>
flow er</w>
fl ows</w>
fe eding</w>
f lights</w>
exten ds</w>
ev angel
eu karyo
est y
eritre an</w>
environ ments</w>
em issions</w>
electro magnetic</w>
el le</w>
ecclesias tical</w>
east er</w>
e able</w>
du s</w>
du res</w>
domin ance</w>
detec t</w>
denom ination</w>
democr at</w>
del ta</w>
defen sive</w>
cric ket</w>
cri tic</w>
contribu ting</w>
confer encing</w>
complic ated</w>
compar able</w>
celebr ations</w>
cant on</w>
ca b</w>
c ow
c af
bu ff
br and</w>
boulev ard</w>
bo dy
bin ding</w>
benjam in</w>
belong ing</w>
bat teries</w>
bank ru
b ach
ati a</w>
arrang ements</w>
arg u
archi ve</w>
ar ray</w>
alleg ed</w>
all oc
al be
advant ages</w>
activi sts</w>
a side</w>
a ids</w>
a ided</w>
a ene
z y
wi res</w>
w ounded</w>
victor ies</w>
ver bs</w>
ven d
ussi ons</w>
umayy ad</w>
tournam ent</w>
tic ation</w>
ti m</w>
ten ant</w>
tele graph</w>
t ze</w>
t c</w>
sy rian</w>
swe dish</w>
stre ssed</w>
strateg ies</w>
str ings</w>
ste p
stat ute</w>
solu ble</w>
soci ally</w>
situ ations</w>
seri ously</w>
sem icon
sain ts</w>
sa u</w>
sa k
roc ky</w>
republic ans</w>
repe ti
rel ating</w>
read ings</w>
r cc</w>
quar ters</w>
quanti ties</w>
quali fied</w>
pun ishment</w>
publ ish</w>
pu ts</w>
prece ding</w>
physic ian</w>
pharmaceu tical</w>
peas ants</w>
pe er</w>
patron age</w>
out door</w>
osaur s</w>
ore r</w>
oph one</w>
n ou
moun tain
men tion</w>
measure ment</w>
mat ching</w>
man ip
maced on</w>
lu ther
lo tte</w>
li ons</w>
le agues</w>
lat est</w>
l om
k or
k es
judg ment</w>
jos é</w>
is phere</w>
inter ference</w>
innoc ent</w>
in formed</w>
in clu
il er</w>
il a</w>
identi fication</w>
hol id
hol e</w>
har b
hand ling</w>
h ired</w>
h alls</w>
gregor ian</w>
grap hic</w>
go d
gen eva</w>
ge org
g in</w>
g an
feud al</w>
f s</w>
exten sively</w>
expl orer</w>
exac tly</w>
es co</w>
enorm ous</w>
elec tri
eful ly</w>
doc tor</w>
dis rup
dis pat
di min
descri bing</w>
cy cl
crucifi xion</w>
critic ised</w>
cor tex</w>
contribu te</w>
constitu te</w>
conson ants</w>
conserv atives</w>
consen sus</w>
con tain
con siders</w>
comm ented</w>
com prises</w>
clin ton</w>
ci es</w>
ch u
cer am
categ or
car to
c un
bus es</w>
bul k</w>
bl ues</w>
bis sau</w>
avi er</w>
atten dance</w>
at tract</w>
archae ological</w>
ap a</w>
ali ans</w>
ac com
ac cess
3. 5</w>
185 5</w>
18 60</w>
13 .
1, 500</w>
. com</w>
, [citation</w>
' m</w>
ο ς</w>
í a</w>
z u
yi el
yang tze</w>
y side</w>
x x
vide os</w>
victor ian</w>
v is</w>
v h
tri g
trac tion</w>
to k
tion ality</w>
th under
tex tual</w>
terre stri
ten d
tas ks</w>
t z
t ent</w>
t ell</w>
t cm</w>
symb olic</w>
success ors</w>
su ez</w>
strong est</w>
st ones</w>
sophis ticated</w>
slo ven
sli m</w>
sim on</w>
semicon duc
secur ed</w>
satur day</w>
s f
s ad
rou t
rou s</w>
rem n
recomm end
re located</w>
re la
ra ising</w>
que ens</w>
prote ins</w>
propos als</w>
promin ence</w>
programm es</w>
pro pon
pres sing</w>
por tedly</w>
plat eau</w>
pir acy</w>
pe ti
par th
p o</w>
obser ver</w>
nom inal</w>
me ter</w>
me te
malay sia</w>
m é
list ening</w>
le ans</w>
law rence</w>
k ash
j acqu
inter action</w>
insur ance</w>
innov ations</w>
ini um</w>
in herit
il ers</w>
ic ide</w>
i fied</w>
horizon tal</w>
hol dings</w>
govern mental</w>
g as
g ab
foc using</w>
fic tion</w>
f c</w>
es que</w>
es cap
epis cop
ent e</w>
engine er</w>
en se</w>
embr y
edit orial</w>
e ers</w>
e dison</w>
dou bled</w>
dispu tes</w>
dis missed</w>
dis continued</w>
direc tors</w>
develop ers</w>
desk top</w>
d j
cy lin
cu tting</w>
cre st</w>
contr ary</w>
consum ed</w>
consist ently</w>
color ado</w>
co at</w>
chr is</w>
charg ing</w>
ceremon ial</w>
cem e
camer a</w>
c i</w>
bom bar
behavi ors</w>
be half</w>
ba h
attrac tions</w>
assem bled</w>
ar id</w>
angl ican</w>
alli c</w>
aggres sion</w>
after wards</w>
a g</w>
5 00,000</w>
192 4</w>
18 80</w>
18 30</w>
1. 2</w>
vol can
viet nam
uni sts</w>
un usual</w>
um en
u sion</w>
travel led</w>
transi tional</w>
the ism</w>
th al</w>
terrestri al</w>
ter a</w>
tem ples</w>
te ach</w>
t ments</w>
sympt oms</w>
sust ained</w>
sup pressed</w>
ste am</w>
sf sr</w>
sett le</w>
ser bo</w>
seleuci d</w>
sc ope</w>
ro ll
requ ested</w>
reduc es</w>
re tro
re treat</w>
rail ways</w>
ra w
ra p</w>
r s</w>
quanti ty</w>
proce dures</w>
pro jec
pred ation</w>
po em</w>
plat o</w>
pic asso</w>
ph ases</w>
pestici de</w>
per su
per pe
pain ted</w>
own s</w>
orthodo xy</w>
ori um</w>
or leans</w>
onym ous</w>
obli gations</w>
norman dy</w>
n oc
n ba</w>
mort ality</w>
mong ols</w>
mon th
mel ting</w>
medi an</w>
mas onic</w>
m im
log o</w>
leban on</w>
laun ching</w>
lanc ash
lancash ire</w>
l ass
king ham</w>
k new</w>
k m
k im</w>
ju árez</w>
injur ed</w>
in tim
id ation</w>
human ity</w>
her self</w>
ha u
h ag
gra ins</w>
g aining</w>
for d
foc uses</w>
fl ame</w>
fis cal</w>
fall en</w>
f i</w>
ev in</w>
er ra</w>
ep ic
enter prise</w>
en sur
em m
em in
e vil</w>
e isen
duch y</w>
du plic
dri ving</w>
dr um</w>
dom ain</w>
divor ce</w>
differ ing</w>
di pole</w>
deter i
depen d</w>
def ended</w>
deep ly</w>
de grad
de bu
cust om</w>
corresp ond</w>
cor ner</w>
control ling</w>
constitu ted</w>
constitu ent</w>
consci ous</w>
congre s
compens ation</w>
comm unists</w>
co in</w>
clou d</w>
circul ar</w>
cho ices</w>
challeng es</w>
ch ol
ch el
ce l</w>
cas us</w>
cas h</w>
c rac
c ds</w>
c argo</w>
brow ser</w>
be id
ban king</w>
bak er</w>
ba i
autom atically</w>
ar n
annel ids</w>
am ino</w>
am bass
admir al</w>
addre ssed</w>
ac tively</w>
ac cent</w>
a x</w>
6 0,000</w>
192 8</w>
189 8</w>
186 1</w>
16 0</w>
1 /
- 3</w>
y ong
y land</w>
we i
wat ch</w>
volunte ers</w>
volum es</w>
view ing</w>
vic ero
ven er
vari ant</w>
um b
ud ad</w>
u be</w>
u als</w>
tun g
tt a</w>
tox ic</w>
toler ance</w>
ther av
ther ap
th es
test ament</w>
tend ency</w>
ten s</w>
tal k</w>
t u</w>
swit ched</w>
swi ft</w>
sultan ate</w>
sul f
substan ces</w>
st ag
sp in</w>
shar p</w>
sever ely</w>
s ati
ri de</w>
restor ation</w>
ren ov
relati ves</w>
refer ee</w>
re sumed</w>
re served</w>
presid ents</w>
prepar ation</w>
practic ed</w>
portr ayed</w>
po t</w>
po et</w>
plo id</w>
plan es</w>
pi ed
p tions</w>
p airs</w>
ol ds</w>
oc a
nutri ents</w>
my th
mus ic
mu d</w>
min ed</w>
mass acre</w>
marg aret</w>
mar x
loo ked</w>
lo an
lif esty
k no
journ alist</w>
j uni
j ay
interpre tations</w>
intermedi ate</w>
inste in</w>
inherit ance</w>
in formal</w>
il led</w>
hop ed</w>
h at
gre co</w>
gr ace</w>
gl y
g ence</w>
fu r</w>
fried rich</w>
fossi ls</w>
for ti
fear ed</w>
expen dit
exclud ed</w>
ex uality</w>
ent um</w>
en emies</w>
empha sized</w>
elim inate</w>
dou bt</w>
divi de</w>
dist ant</w>
disc ussions</w>
dis cover
dev ast
depic ted</w>
de fici
dav is</w>
d il
cu ba</w>
cru ise</w>
cr ush
coun ts</w>
convers ely</w>
conven tions</w>
control ler</w>
con ceived</w>
comman ded</w>
comb ining</w>
clari fication</w>
cl ause</w>
ci udad</w>
chr onic</w>
cell ular</w>
cab les</w>
br ass</w>
br and
behavi our</w>
behavi oral</w>
be aring</w>
attac king</w>
ass ist</w>
answ er</w>
announc ement</w>
am pli
all en</w>
albe it</w>
al ger
ail s</w>
accompl ished</w>
